<pad>	0
<unk>	0
<s>	0
</s>	0
en	-0
te	-1
of	-2
end	-3
xt	-4
text	-5
▁<	-6
endof	-7
|>	-8
▁<|	-9
endoftext	-10
20	-11
19	-12
),	-13
201	-14
200	-15
10	-16
00	-17
的一	-18
18	-19
12	-20
。19	-21
中国	-22
人口	-23
)。	-24
11	-25
政府	-26
an	-27
公司	-28
202	-29
使用	-30
第一	-31
in	-32
or	-33
()	-34
日本	-35
是一	-36
on	-37
平方	-38
er	-39
▁19	-40
15	-41
以及	-42
公里	-43
可以	-44
其中	-45
香港	-46
包括	-47
部分	-48
美國	-49
人民	-50
16	-51
世界	-52
研究	-53
主要	-54
17	-55
ar	-56
其他	-57
代表	-58
14	-59
199	-60
第二	-61
位於	-62
la	-63
30	-64
工作	-65
▁201	-66
因此	-67
▁在	-68
位于	-69
美国	-70
(),	-71
13	-72
中心	-73
大学	-74
一个	-75
可能	-76
表示	-77
成為	-78
)、	-79
自己	-80
他的	-81
al	-82
中的	-83
政治	-84
一個	-85
国家	-86
開始	-87
成立	-88
中國	-89
25	-90
」,	-91
(,	-92
之一	-93
平方公里	-94
共和	-95
ic	-96
法国	-97
▁S	-98
不同	-99
”。	-100
中央	-101
198	-102
es	-103
進行	-104
地区	-105
面積	-106
地區	-107
50	-108
进行	-109
年的	-110
大學	-111
提供	-112
24	-113
」。	-114
文化	-115
获得	-116
正式	-117
开始	-118
所有	-119
at	-120
委员	-121
的一个	-122
”,	-123
管理	-124
成为	-125
他們	-126
台灣	-127
21	-128
年代	-129
國家	-130
is	-131
for	-132
。201	-133
沒有	-134
▁C	-135
作品	-136
》,	-137
認為	-138
電影	-139
运动	-140
23	-141
上的	-142
城市	-143
mu	-144
..	-145
le	-146
28	-147
由於	-148
am	-149
也是	-150
he	-151
22	-152
行政	-153
大的	-154
他们	-155
▁M	-156
支持	-157
197	-158
▁200	-159
一些	-160
人的	-161
獲得	-162
面积	-163
第三	-164
通过	-165
教育	-166
26	-167
因為	-168
電視	-169
27	-170
没有	-171
同時	-172
认为	-173
it	-174
工程	-175
mula	-176
當時	-177
北京	-178
2020	-179
formula	-180
千米	-181
ro	-182
同年	-183
方面	-184
000	-185
re	-186
上海	-187
重要	-188
40	-189
之後	-190
60	-191
大利	-192
到了	-193
▁A	-194
加入	-195
的人	-196
29	-197
铁路	-198
。200	-199
学院	-200
北部	-201
▁《	-202
》、	-203
生活	-204
2019	-205
共和国	-206
足球	-207
作为	-208
擔任	-209
目前	-210
時間	-211
需要	-212
建立	-213
印度	-214
系列	-215
完成	-216
事件	-217
参加	-218
要求	-219
英國	-220
地方	-221
平方千米	-222
成功	-223
國際	-224
中华	-225
根據	-226
市镇	-227
▁202	-228
是在	-229
.5	-230
主义	-231
最高	-232
el	-233
ion	-234
了一	-235
南部	-236
然而	-237
密度	-238
由于	-239
194	-240
▁P	-241
例如	-242
作為	-243
車站	-244
斯特	-245
系統	-246
委员会	-247
海拔	-248
音樂	-249
存在	-250
臺灣	-251
il	-252
国际	-253
前往	-254
ol	-255
通常	-256
▁B	-257
自由	-258
受到	-259
他在	-260
as	-261
建筑	-262
宣布	-263
▁T	-264
us	-265
期間	-266
運動	-267
發展	-268
》(	-269
ac	-270
全国	-271
》、《	-272
组织	-273
▁(	-274
合作	-275
1,	-276
世纪	-277
共有	-278
zh	-279
方式	-280
同时	-281
有一	-282
發現	-283
提出	-284
最後	-285
中華	-286
系统	-287
二十	-288
担任	-289
的大	-290
31	-291
稱為	-292
196	-293
委員	-294
但是	-295
首次	-296
80	-297
設計	-298
人口密度	-299
英国	-300
社会	-301
出版	-302
高度	-303
負責	-304
民主	-305
之后	-306
德国	-307
人物	-308
具有	-309
出現	-310
影響	-311
这些	-312
▁t	-313
此外	-314
}-	-315
-{	-316
195	-317
取得	-318
造成	-319
控制	-320
接受	-321
ou	-322
形成	-323
後來	-324
出生	-325
et	-326
主席	-327
人民共和国	-328
经济	-329
增加	-330
中共	-331
分布	-332
历史	-333
地的	-334
期间	-335
屬於	-336
遊戲	-337
▁L	-338
這些	-339
一般	-340
发现	-341
》。	-342
的是	-343
任何	-344
另外	-345
歌曲	-346
比賽	-347
附近	-348
交通	-349
35	-350
主教	-351
电影	-352
90	-353
製作	-354
角色	-355
设计	-356
最終	-357
活動	-358
根据	-359
中华人民共和国	-360
因为	-361
社會	-362
一直	-363
革命	-364
属于	-365
ch	-366
ing	-367
節目	-368
70	-369
100	-370
成員	-371
om	-372
,200	-373
游戏	-374
就是	-375
發生	-376
▁R	-377
之間	-378
行的	-379
2010	-380
学校	-381
年至	-382
发展	-383
比赛	-384
故事	-385
之前	-386
女性	-387
1.	-388
航空	-389
得到	-390
除了	-391
ter	-392
所以	-393
▁G	-394
民國	-395
当时	-396
專輯	-397
許多	-398
參與	-399
:“	-400
自己的	-401
羅斯	-402
时间	-403
西班	-404
。”	-405
只有	-406
西班牙	-407
▁H	-408
這個	-409
重新	-410
安全	-411
服務	-412
罗斯	-413
另一	-414
平均	-415
如果	-416
有限	-417
十二	-418
称为	-419
居民	-420
命名	-421
(,),	-422
45	-423
影响	-424
男子	-425
0.	-426
美元	-427
當地	-428
▁D	-429
進入	-430
之间	-431
是由	-432
id	-433
保护	-434
这个	-435
行星	-436
的一個	-437
位置	-438
非常	-439
面積為	-440
37	-441
36	-442
38	-443
學校	-444
建築	-445
发生	-446
出的	-447
2.	-448
尼亚	-449
战争	-450
組織	-451
▁F	-452
女子	-453
設有	-454
雖然	-455
問題	-456
一起	-457
教授	-458
共同	-459
時期	-460
植物	-461
生物	-462
and	-463
克斯	-464
48	-465
直接	-466
冠軍	-467
世紀	-468
發行	-469
un	-470
技术	-471
2021	-472
主任	-473
歷史	-474
大量	-475
日在	-476
联合	-477
。199	-478
最佳	-479
參加	-480
2,	-481
甚至	-482
也有	-483
決定	-484
这一	-485
车站	-486
通過	-487
已經	-488
為了	-489
公路	-490
最终	-491
第四	-492
新的	-493
版本	-494
st	-495
问题	-496
不是	-497
直到	-498
ad	-499
活动	-500
民族	-501
下的	-502
出现	-503
法院	-504
自治	-505
时期	-506
形式	-507
克蘭	-508
完全	-509
进入	-510
包含	-511
三年	-512
都是	-513
音乐	-514
计划	-515
已经	-516
分別	-517
2011	-518
法律	-519
關係	-520
电视	-521
学家	-522
39	-523
再次	-524
選舉	-525
經濟	-526
34	-527
意大利	-528
性的	-529
委員會	-530
▁I	-531
的地	-532
的情	-533
省份	-534
两个	-535
政策	-536
ig	-537
俄羅斯	-538
2022	-539
主義	-540
后来	-541
:「	-542
许多	-543
od	-544
ur	-545
法國	-546
书记	-547
舉行	-548
海拔高度	-549
烏克蘭	-550
利用	-551
会议	-552
」(	-553
自然	-554
——	-555
並且	-556
希望	-557
名的	-558
ow	-559
ed	-560
方法	-561
學院	-562
指出	-563
西部	-564
▁W	-565
最初	-566
德國	-567
33	-568
lt	-569
单位	-570
能力	-571
總統	-572
歐洲	-573
,《	-574
名為	-575
學生	-576
計劃	-577
俄罗斯	-578
死亡	-579
尼亞	-580
不能	-581
官方	-582
,000	-583
利亚	-584
用于	-585
大多	-586
全球	-587
聯合	-588
2016	-589
斯坦	-590
一年	-591
戰爭	-592
加拿	-593
组成	-594
领导	-595
聯盟	-596
推出	-597
▁E	-598
普查	-599
她的	-600
功能	-601
决定	-602
2012	-603
49	-604
作用	-605
球隊	-606
一次	-607
特別	-608
75	-609
基本	-610
不過	-611
外交	-612
公共	-613
▁"	-614
。198	-615
的新	-616
一名	-617
來自	-618
去世	-619
▁199	-620
導致	-621
大陆	-622
阿拉	-623
46	-624
列车	-625
年在	-626
兩個	-627
擁有	-628
共产	-629
服务	-630
os	-631
的主	-632
解放	-633
並在	-634
▁d	-635
文物	-636
阿尔	-637
當中	-638
而且	-639
議員	-640
定的	-641
無法	-642
ent	-643
採用	-644
关系	-645
仍然	-646
2018	-647
的小	-648
演出	-649
第十	-650
家庭	-651
▁of	-652
鐵路	-653
2014	-654
國民	-655
(15	-656
有限公司	-657
唯一	-658
年人口	-659
境内	-660
中華民國	-661
博物	-662
的一个市镇	-663
2013	-664
ra	-665
独立	-666
集团	-667
%,	-668
2017	-669
总统	-670
方向	-671
32	-672
gt	-673
学生	-674
相關	-675
加拿大	-676
太平	-677
学名	-678
該國	-679
描述	-680
在此	-681
時代	-682
2015	-683
3.	-684
的名	-685
西南	-686
蒙古	-687
原因	-688
2023	-689
早期	-690
列車	-691
人士	-692
项目	-693
演唱	-694
四年	-695
道路	-696
▁本	-697
模式	-698
西北	-699
獨立	-700
主持	-701
▁N	-702
區的	-703
第一次	-704
組成	-705
导致	-706
欧洲	-707
使得	-708
宗教	-709
47	-710
来自	-711
建设	-712
im	-713
2009	-714
浙江	-715
相同	-716
开发	-717
對於	-718
賽事	-719
夏季	-720
透過	-721
2000	-722
產生	-723
65	-724
月台	-725
播出	-726
名为	-727
189	-728
成员	-729
这种	-730
等人	-731
繼續	-732
人员	-733
ia	-734
生产	-735
者的	-736
利亞	-737
han	-738
分别	-739
ot	-740
科学	-741
。」	-742
iv	-743
結束	-744
州市	-745
负责	-746
55	-747
艺术	-748
管轄	-749
里斯	-750
學家	-751
最大	-752
聯賽	-753
不同的	-754
排名	-755
超過	-756
ir	-757
的一部分	-758
运动员	-759
藝術	-760
巴士	-761
190	-762
um	-763
歌手	-764
身份	-765
大部分	-766
林匹	-767
年起	-768
三十	-769
博士	-770
年度	-771
的特	-772
建造	-773
2008	-774
当地	-775
,“	-776
是位於	-777
行動	-778
是一个	-779
部队	-780
個人	-781
参与	-782
很多	-783
最后	-784
司令	-785
」、	-786
開發	-787
%。	-788
机构	-789
人員	-790
政治人物	-791
ation	-792
发布	-793
拉斯	-794
基督	-795
人口普查	-796
青年	-797
不久	-798
结构	-799
西亚	-800
(,)	-801
畢業	-802
土地	-803
为了	-804
南京	-805
▁the	-806
林匹克	-807
韓國	-808
制度	-809
但在	-810
高速	-811
小時	-812
采用	-813
:)	-814
第五	-815
表演	-816
毕业	-817
区域	-818
警察	-819
結果	-820
”(	-821
地下	-822
64	-823
军事	-824
等地	-825
其後	-826
苏联	-827
海军	-828
总人口	-829
拥有	-830
家族	-831
ec	-832
五年	-833
的主要	-834
部长	-835
越南	-836
▁K	-837
全部	-838
以下	-839
任命	-840
速度	-841
▁c	-842
有關	-843
毫米	-844
多的	-845
产生	-846
2024	-847
中部	-848
数据	-849
")	-850
随后	-851
68	-852
改革	-853
天文	-854
帝国	-855
共和國	-856
尔省	-857
44	-858
議會	-859
數據	-860
傳統	-861
男性	-862
並於	-863
地球	-864
四川	-865
澳門	-866
78	-867
TC	-868
遭到	-869
技術	-870
出任	-871
海軍	-872
保持	-873
居住	-874
生產	-875
舉辦	-876
動畫	-877
影片	-878
信息	-879
或者	-880
取代	-881
葡萄	-882
引起	-883
日至	-884
立法	-885
第二次	-886
武器	-887
玩家	-888
共产党	-889
元年	-890
联邦	-891
最大的	-892
多次	-893
科技	-894
工业	-895
一步	-896
部隊	-897
语言	-898
這種	-899
曾任	-900
制作	-901
分子	-902
公開	-903
并且	-904
分析	-905
作家	-906
斯科	-907
▁O	-908
▁s	-909
公尺	-910
以上	-911
演員	-912
58	-913
ag	-914
总面积	-915
3,	-916
平台	-917
水域	-918
。《	-919
新聞	-920
2007	-921
調查	-922
創作	-923
军队	-924
有的	-925
最早	-926
福建	-927
父親	-928
州的	-929
位於該國	-930
op	-931
每年	-932
大陸	-933
罗马	-934
左右	-935
河南	-936
集團	-937
發表	-938
帝國	-939
路線	-940
街道	-941
....	-942
(18	-943
物理	-944
美洲	-945
2006	-946
动物	-947
來的	-948
格蘭	-949
.8	-950
現在	-951
结束	-952
2001	-953
英文	-954
日起	-955
机场	-956
76	-957
冠军	-958
大型	-959
東京	-960
联赛	-961
天主教	-962
動物	-963
500	-964
一種	-965
及其	-966
回到	-967
继续	-968
用於	-969
拍攝	-970
紀念	-971
是一個	-972
單位	-973
79	-974
运动会	-975
單曲	-976
距離	-977
中文	-978
天津	-979
截至	-980
」、「	-981
巴黎	-982
▁198	-983
部份	-984
二年	-985
的前	-986
山东	-987
限制	-988
(16	-989
顯示	-990
号线	-991
熱帶	-992
▁,	-993
加坡	-994
ay	-995
国民	-996
人在	-997
曾在	-998
斯的	-999
選擇	-1000
机车	-1001
教堂	-1002
中国大陆	-1003
經過	-1004
指挥	-1005
而在	-1006
出了	-1007
关于	-1008
公園	-1009
羅馬	-1010
之外	-1011
66	-1012
內的	-1013
并在	-1014
大会	-1015
兄弟	-1016
未能	-1017
,19	-1018
77	-1019
2005	-1020
會議	-1021
主角	-1022
th	-1023
▁J	-1024
发行	-1025
內容	-1026
部的	-1027
原本	-1028
斯基	-1029
反应	-1030
媒體	-1031
新加坡	-1032
标准	-1033
所在	-1034
公布	-1035
小行星	-1036
东北	-1037
病毒	-1038
相关	-1039
加上	-1040
團體	-1041
伊斯	-1042
和平	-1043
負責管轄	-1044
紀錄	-1045
皇帝	-1046
过程	-1047
保護	-1048
範圍	-1049
▁p	-1050
計畫	-1051
區域	-1052
交易	-1053
亞洲	-1054
概念	-1055
的第一	-1056
企业	-1057
精神	-1058
广东	-1059
范围	-1060
處理	-1061
返回	-1062
必須	-1063
進士	-1064
化的	-1065
唱片	-1066
超过	-1067
ub	-1068
它的	-1069
它们	-1070
69	-1071
六年	-1072
行為	-1073
隨後	-1074
攻擊	-1075
▁根據	-1076
不少	-1077
澳大利	-1078
的首	-1079
行动	-1080
举行	-1081
一位	-1082
是否	-1083
学习	-1084
ri	-1085
正在	-1086
同意	-1087
节目	-1088
oc	-1089
.0	-1090
。18	-1091
元素	-1092
反对	-1093
太平洋	-1094
威廉	-1095
隨著	-1096
改為	-1097
59	-1098
og	-1099
重要的	-1100
河流	-1101
力量	-1102
媒体	-1103
对于	-1104
世界大	-1105
▁18	-1106
年美國	-1107
集中	-1108
ST	-1109
面的	-1110
普通	-1111
生涯	-1112
▁年	-1113
.9	-1114
联盟	-1115
li	-1116
至今	-1117
现代	-1118
台北	-1119
42	-1120
環境	-1121
流行	-1122
▁V	-1123
斯克	-1124
我们	-1125
中学	-1126
UTC	-1127
語言	-1128
基地	-1129
曾經	-1130
子的	-1131
投票	-1132
ap	-1133
初期	-1134
,「	-1135
方案	-1136
报告	-1137
西亞	-1138
56	-1139
网络	-1140
過程	-1141
機場	-1142
基金	-1143
虽然	-1144
型的	-1145
来的	-1146
項目	-1147
2004	-1148
皇家	-1149
年以	-1150
資料	-1151
程度	-1152
好的	-1153
医院	-1154
反對	-1155
调查	-1156
年夏季	-1157
董事	-1158
尽管	-1159
是指	-1160
▁b	-1161
41	-1162
有些	-1163
感染	-1164
朝鲜	-1165
年被	-1166
程序	-1167
軍事	-1168
表現	-1169
球队	-1170
巴西	-1171
上映	-1172
公元	-1173
批准	-1174
戰鬥	-1175
特别	-1176
第六	-1177
43	-1178
標準	-1179
離開	-1180
機構	-1181
基础	-1182
相當	-1183
取消	-1184
是一种	-1185
、、	-1186
保留	-1187
结果	-1188
em	-1189
方的	-1190
有效	-1191
计算	-1192
▁。	-1193
属的	-1194
发表	-1195
还有	-1196
市場	-1197
於是	-1198
殖民	-1199
67	-1200
也被	-1201
人類	-1202
建成	-1203
力的	-1204
公民	-1205
化学	-1206
纪念	-1207
研究所	-1208
选举	-1209
收入	-1210
二世	-1211
快速	-1212
湖南	-1213
主演	-1214
▁formula	-1215
理论	-1216
全國	-1217
▁-	-1218
体育	-1219
思想	-1220
色列	-1221
奥林匹克	-1222
经过	-1223
每平方公里	-1224
小时	-1225
投入	-1226
的高	-1227
重建	-1228
不再	-1229
这是	-1230
該地	-1231
小說	-1232
執行	-1233
新闻	-1234
事務	-1235
《》	-1236
協會	-1237
专业	-1238
我們	-1239
协会	-1240
下午	-1241
少年	-1242
至少	-1243
西洋	-1244
停止	-1245
明朝	-1246
300	-1247
拉克	-1248
以色列	-1249
十年	-1250
传统	-1251
银行	-1252
环境	-1253
海岸	-1254
无法	-1255
文件	-1256
十分	-1257
57	-1258
現時	-1259
▁m	-1260
设立	-1261
不會	-1262
現代	-1263
分為	-1264
内的	-1265
ce	-1266
是法国	-1267
妻子	-1268
為主	-1269
設立	-1270
av	-1271
用的	-1272
德里	-1273
西省	-1274
("	-1275
▁2019	-1276
都有	-1277
只是	-1278
父亲	-1279
民国	-1280
大区	-1281
核心	-1282
”、	-1283
省的一个市镇	-1284
王朝	-1285
漫畫	-1286
大使	-1287
協助	-1288
合物	-1289
马来	-1290
54	-1291
改为	-1292
持續	-1293
球員	-1294
办公	-1295
公分	-1296
使用的	-1297
他曾	-1298
直至	-1299
随着	-1300
臺北	-1301
日的	-1302
材料	-1303
非洲	-1304
科學	-1305
公园	-1306
约翰	-1307
氧化	-1308
韩国	-1309
ov	-1310
接近	-1311
地利	-1312
電子	-1313
地位	-1314
ind	-1315
尤其	-1316
II	-1317
规模	-1318
決賽	-1319
出身	-1320
一世	-1321
或是	-1322
新增	-1323
电子	-1324
著名	-1325
ut	-1326
體育	-1327
不可	-1328
设有	-1329
年间	-1330
现在	-1331
阿拉伯	-1332
ak	-1333
中學	-1334
个人	-1335
支援	-1336
位于法国	-1337
▁2020	-1338
任务	-1339
這是	-1340
棲息	-1341
▁该	-1342
行为	-1343
ab	-1344
七年	-1345
首都	-1346
ers	-1347
星期	-1348
宣佈	-1349
ard	-1350
類似	-1351
因而	-1352
將軍	-1353
知道	-1354
再度	-1355
士兵	-1356
年間	-1357
时代	-1358
88	-1359
量的	-1360
佛教	-1361
不明	-1362
比利	-1363
安排	-1364
陸地	-1365
擊敗	-1366
名稱	-1367
.7	-1368
执行	-1369
.6	-1370
軍隊	-1371
能夠	-1372
▁U	-1373
建於	-1374
选择	-1375
如此	-1376
高中	-1377
命令	-1378
人民政府	-1379
奥运	-1380
提高	-1381
达到	-1382
則是	-1383
目的	-1384
创作	-1385
运营	-1386
将军	-1387
的女	-1388
1990	-1389
区的	-1390
結構	-1391
後的	-1392
外的	-1393
製造	-1394
▁2018	-1395
還有	-1396
處於	-1397
东南	-1398
第七	-1399
的時	-1400
入侵	-1401
實際	-1402
職業	-1403
实际	-1404
年美國人口普查	-1405
路易	-1406
前的	-1407
色的	-1408
▁大	-1409
交流	-1410
赛季	-1411
内容	-1412
嚴重	-1413
情况	-1414
AT	-1415
月至	-1416
醫院	-1417
文物保护	-1418
伯特	-1419
为法国	-1420
2003	-1421
大臣	-1422
中国人民	-1423
飾演	-1424
健康	-1425
指揮	-1426
為每	-1427
訓練	-1428
葡萄牙	-1429
瑞典	-1430
卢瓦	-1431
警方	-1432
也在	-1433
報告	-1434
高的	-1435
amp	-1436
人口密度每平方公里	-1437
線的	-1438
文章	-1439
將其	-1440
的研究	-1441
52	-1442
相似	-1443
移民	-1444
解放军	-1445
市场	-1446
实验	-1447
奥林匹克运动会	-1448
阿爾	-1449
清朝	-1450
消息	-1451
興建	-1452
兩人	-1453
博物馆	-1454
目標	-1455
失去	-1456
朋友	-1457
的三	-1458
恢复	-1459
俱乐	-1460
禁止	-1461
江苏	-1462
有关	-1463
共有人口	-1464
錦標	-1465
议会	-1466
不得	-1467
▁2021	-1468
可達	-1469
同一	-1470
▁2017	-1471
nd	-1472
八年	-1473
职业	-1474
導演	-1475
市的	-1476
获得了	-1477
建于	-1478
各地	-1479
空间	-1480
的數據	-1481
》()	-1482
接壤	-1483
NA	-1484
而是	-1485
ie	-1486
(19	-1487
高等	-1488
分为	-1489
之間的	-1490
之间的	-1491
效力	-1492
一樣	-1493
文物保护单位	-1494
一度	-1495
操作	-1496
只能	-1497
母親	-1498
国王	-1499
尚未	-1500
看到	-1501
线路	-1502
距离	-1503
得以	-1504
企業	-1505
可能是	-1506
此后	-1507
云南	-1508
处理	-1509
严重	-1510
他是	-1511
战斗	-1512
类似	-1513
广播	-1514
▁的	-1515
工人	-1516
表明	-1517
成的	-1518
社区	-1519
工業	-1520
過去	-1521
实现	-1522
72	-1523
避免	-1524
合并	-1525
太陽	-1526
▁St	-1527
中山	-1528
尼斯	-1529
逐漸	-1530
科的	-1531
某些	-1532
不足	-1533
是中国	-1534
99	-1535
一同	-1536
自治区	-1537
普遍	-1538
水平	-1539
制造	-1540
西哥	-1541
倫敦	-1542
74	-1543
统治	-1544
ul	-1545
有人	-1546
成了	-1547
商業	-1548
连接	-1549
2002	-1550
该省份	-1551
51	-1552
設施	-1553
的方式	-1554
平方米	-1555
領導	-1556
”、“	-1557
St	-1558
ice	-1559
西方	-1560
东部	-1561
该省份为法国	-1562
瑞士	-1563
细胞	-1564
森林	-1565
高雄	-1566
統治	-1567
提升	-1568
注意	-1569
The	-1570
而被	-1571
的海	-1572
的意	-1573
61	-1574
专辑	-1575
生命	-1576
孩子	-1577
ud	-1578
各種	-1579
▁2016	-1580
和其他	-1581
娛樂	-1582
感到	-1583
聯邦	-1584
产品	-1585
河北	-1586
個月	-1587
4,	-1588
提名	-1589
特的	-1590
隧道	-1591
出口	-1592
並不	-1593
ne	-1594
商业	-1595
儘管	-1596
当选	-1597
背景	-1598
(;	-1599
播放	-1600
名字	-1601
▁and	-1602
62	-1603
空間	-1604
基督教	-1605
1980	-1606
九年	-1607
銀行	-1608
▁3	-1609
是一位	-1610
的原	-1611
連續	-1612
安德	-1613
53	-1614
▁2022	-1615
學習	-1616
北美	-1617
开放	-1618
▁阿	-1619
的成	-1620
分布于	-1621
必须	-1622
▁&	-1623
克兰	-1624
姆斯	-1625
酒店	-1626
墨西哥	-1627
广州	-1628
71	-1629
89	-1630
报道	-1631
廣播	-1632
迅速	-1633
是一名	-1634
俱乐部	-1635
國王	-1636
",	-1637
展開	-1638
情況	-1639
1999	-1640
ob	-1641
市民	-1642
这样	-1643
南北	-1644
金牌	-1645
是一種	-1646
之下	-1647
分鐘	-1648
經營	-1649
人大	-1650
基礎	-1651
著作	-1652
年底	-1653
进行了	-1654
案件	-1655
ist	-1656
ine	-1657
数量	-1658
显示	-1659
物種	-1660
金融	-1661
蛋白	-1662
▁2	-1663
将其	-1664
投资	-1665
能够	-1666
年和	-1667
地震	-1668
73	-1669
为主	-1670
大西洋	-1671
以來	-1672
群島	-1673
吸引	-1674
自行	-1675
模型	-1676
又名	-1677
本身	-1678
記者	-1679
東北	-1680
澳洲	-1681
不过	-1682
引擎	-1683
决赛	-1684
大道	-1685
缺乏	-1686
風格	-1687
文学	-1688
SA	-1689
中共中央	-1690
彼得	-1691
批評	-1692
樂團	-1693
1998	-1694
▁4	-1695
紐約	-1696
爾斯	-1697
人口密度為每	-1698
菲律	-1699
平面	-1700
建議	-1701
小说	-1702
委会	-1703
視為	-1704
63	-1705
東南	-1706
轨道	-1707
▁w	-1708
▁f	-1709
各种	-1710
海域	-1711
年美國人口普查的數據	-1712
ok	-1713
人口密度為每平方千米	-1714
著名的	-1715
大樓	-1716
的一座	-1717
當地共有人口	-1718
而人口密度為每平方千米	-1719
特殊	-1720
流域	-1721
发动	-1722
:"	-1723
乘客	-1724
旅客	-1725
tw	-1726
理事	-1727
有所	-1728
运行	-1729
▁2015	-1730
品牌	-1731
▁in	-1732
容易	-1733
羽毛	-1734
完整	-1735
蘇聯	-1736
是日本	-1737
部门	-1738
后的	-1739
尔德	-1740
延伸	-1741
格兰	-1742
);	-1743
陸軍	-1744
報導	-1745
它們	-1746
太阳	-1747
達到	-1748
纽约	-1749
合併	-1750
人工	-1751
匈牙	-1752
先后	-1753
帮助	-1754
更多	-1755
規模	-1756
伊朗	-1757
程式	-1758
三个	-1759
澳大利亚	-1760
維持	-1761
匈牙利	-1762
的地方	-1763
東部	-1764
鐵道	-1765
尔斯	-1766
人和	-1767
飛機	-1768
股份	-1769
任務	-1770
電視台	-1771
法案	-1772
▁1	-1773
规定	-1774
公主	-1775
▁2014	-1776
會在	-1777
本土	-1778
举办	-1779
父母	-1780
拉夫	-1781
表面	-1782
85	-1783
連接	-1784
中国共产党	-1785
病例	-1786
拉丁	-1787
-5	-1788
理論	-1789
学位	-1790
新疆	-1791
1997	-1792
离开	-1793
同樣	-1794
埃及	-1795
分布於	-1796
約翰	-1797
全面	-1798
国务	-1799
时候	-1800
涉及	-1801
減少	-1802
▁2013	-1803
斯卡	-1804
學者	-1805
.2	-1806
▁此	-1807
如何	-1808
(17	-1809
广场	-1810
亦有	-1811
英語	-1812
相比	-1813
她在	-1814
十一	-1815
疫情	-1816
被称为	-1817
湖北	-1818
一种	-1819
體長	-1820
▁()	-1821
Ch	-1822
土耳	-1823
汽车	-1824
的重要	-1825
400	-1826
授予	-1827
心理	-1828
國立	-1829
土耳其	-1830
.3	-1831
台湾	-1832
疾病	-1833
需求	-1834
產品	-1835
這一	-1836
選區	-1837
BA	-1838
晚上	-1839
的第	-1840
字母	-1841
經常	-1842
人类	-1843
逝世	-1844
作者	-1845
措施	-1846
1996	-1847
因素	-1848
組合	-1849
兒子	-1850
按照	-1851
小的	-1852
網路	-1853
南極	-1854
-1	-1855
省和	-1856
改變	-1857
于是	-1858
階段	-1859
ct	-1860
安徽	-1861
设备	-1862
反應	-1863
希腊	-1864
TV	-1865
更加	-1866
大區	-1867
展示	-1868
機會	-1869
公司的	-1870
儿子	-1871
逐渐	-1872
希臘	-1873
斯塔	-1874
人们	-1875
的事	-1876
的山	-1877
簡稱	-1878
電視劇	-1879
正常	-1880
西藏	-1881
生于	-1882
战役	-1883
的外	-1884
是以	-1885
開放	-1886
其它	-1887
飞机	-1888
ly	-1889
克里	-1890
他們的	-1891
混合	-1892
贏得	-1893
朝鮮	-1894
届全国	-1895
出席	-1896
地铁	-1897
文學	-1898
ess	-1899
up	-1900
年由	-1901
6,	-1902
贝尔	-1903
發動	-1904
爆發	-1905
降低	-1906
ang	-1907
白色	-1908
规划	-1909
才能	-1910
="	-1911
入口	-1912
祖父	-1913
深圳	-1914
地面	-1915
英格蘭	-1916
也可以	-1917
风格	-1918
波兰	-1919
都市	-1920
中有	-1921
冬季	-1922
四十	-1923
部落	-1924
評論	-1925
hans	-1926
英尺	-1927
农业	-1928
工具	-1929
知名	-1930
马来西亚	-1931
公开	-1932
信仰	-1933
效果	-1934
住宅	-1935
下降	-1936
當選	-1937
在其	-1938
塞尔	-1939
.4	-1940
基因	-1941
很快	-1942
長的	-1943
十字	-1944
在一	-1945
雜誌	-1946
超級	-1947
表现	-1948
1992	-1949
犯罪	-1950
领域	-1951
You	-1952
▁2012	-1953
简称	-1954
變化	-1955
米的	-1956
改善	-1957
文字	-1958
一样	-1959
英雄	-1960
關於	-1961
規定	-1962
拒絕	-1963
持续	-1964
司法	-1965
乌克兰	-1966
(14	-1967
整个	-1968
營運	-1969
记载	-1970
以来	-1971
觀眾	-1972
并于	-1973
會的	-1974
多年	-1975
演员	-1976
出道	-1977
又稱	-1978
編號	-1979
宇宙	-1980
的作品	-1981
用户	-1982
記載	-1983
攻击	-1984
荷蘭	-1985
并不	-1986
爆发	-1987
這樣	-1988
魚綱	-1989
即使	-1990
宣传	-1991
廣東	-1992
設置	-1993
学者	-1994
.1	-1995
年初	-1996
網站	-1997
▁2023	-1998
河畔	-1999
整個	-2000
海洋	-2001
指定	-2002
明治	-2003
记录	-2004
運動員	-2005
比例	-2006
飛行	-2007
下辖	-2008
之中	-2009
;}-	-2010
資訊	-2011
欧元	-2012
占领	-2013
生长	-2014
電腦	-2015
目标	-2016
配合	-2017
柏林	-2018
的情況	-2019
议员	-2020
然后	-2021
改造	-2022
一座	-2023
协议	-2024
▁10	-2025
步兵	-2026
上午	-2027
太空	-2028
est	-2029
委书记	-2030
他们的	-2031
br	-2032
部門	-2033
应用	-2034
坦克	-2035
人民共和國	-2036
布拉	-2037
统计	-2038
贸易	-2039
▁5	-2040
兒童	-2041
幫助	-2042
車輛	-2043
南方	-2044
定义	-2045
旗下	-2046
鰭魚綱	-2047
一家	-2048
1994	-2049
综合	-2050
art	-2051
投資	-2052
食物	-2053
150	-2054
教區	-2055
運輸	-2056
乾隆	-2057
重点	-2058
犹太	-2059
的中	-2060
九龍	-2061
輻鰭魚綱	-2062
古代	-2063
条件	-2064
物种	-2065
實驗	-2066
符合	-2067
三個	-2068
附近的	-2069
體長可達	-2070
然後	-2071
大约	-2072
多个	-2073
的故事	-2074
建制	-2075
部長	-2076
火箭	-2077
被稱為	-2078
比亚	-2079
CD	-2080
阶段	-2081
改編	-2082
都會	-2083
1970	-2084
幾乎	-2085
高速公路	-2086
,2001	-2087
就讀	-2088
设置	-2089
广泛	-2090
爆炸	-2091
维尔	-2092
hk	-2093
形象	-2094
北起	-2095
亨利	-2096
建設	-2097
ows	-2098
收錄	-2099
比較	-2100
ph	-2101
找到	-2102
皇后	-2103
作曲	-2104
西北部	-2105
事故	-2106
出生於	-2107
▁8	-2108
最多	-2109
设施	-2110
ik	-2111
舞台	-2112
治療	-2113
1995	-2114
颱風	-2115
的分	-2116
貿易	-2117
万人	-2118
加利	-2119
資格	-2120
源自	-2121
被迫	-2122
还是	-2123
出戰	-2124
政府的	-2125
該地的	-2126
準備	-2127
▁由於	-2128
恐怖	-2129
狀態	-2130
团体	-2131
陸地面積為	-2132
照片	-2133
出演	-2134
评论	-2135
修改	-2136
實施	-2137
水域面積為	-2138
在大	-2139
提到	-2140
飞行	-2141
年前	-2142
引入	-2143
業務	-2144
了一个	-2145
国务院	-2146
等等	-2147
的工作	-2148
图书	-2149
相對	-2150
秘密	-2151
細胞	-2152
保存	-2153
示威	-2154
▁自	-2155
國會	-2156
逮捕	-2157
隸屬於	-2158
私人	-2159
加盟	-2160
列入	-2161
ue	-2162
真正	-2163
太子	-2164
最近	-2165
氣象	-2166
▁2010	-2167
ate	-2168
生的	-2169
邀請	-2170
汽車	-2171
退役	-2172
定義	-2173
而言	-2174
山脈	-2175
上海市	-2176
始建於	-2177
得知	-2178
重大	-2179
98	-2180
海外	-2181
演唱會	-2182
化石	-2183
统一	-2184
首先	-2185
三角	-2186
地区的	-2187
2025	-2188
月的	-2189
▁2011	-2190
秘书	-2191
之子	-2192
自動	-2193
而水域面積為	-2194
當中陸地面積為	-2195
相信	-2196
發射	-2197
恢復	-2198
戰後	-2199
母亲	-2200
▁zh	-2201
西南部	-2202
扮演	-2203
舰队	-2204
長期	-2205
,198	-2206
亚洲	-2207
中國大陸	-2208
抗日	-2209
繼承	-2210
也不	-2211
的支持	-2212
确诊	-2213
山大	-2214
事务	-2215
北京市	-2216
夫人	-2217
頻道	-2218
bo	-2219
作出	-2220
运输	-2221
的情况	-2222
大約	-2223
ill	-2224
參賽	-2225
賽季	-2226
变化	-2227
針對	-2228
票房	-2229
兼任	-2230
杂志	-2231
拒绝	-2232
▁6	-2233
化合物	-2234
igh	-2235
▁和	-2236
ev	-2237
條件	-2238
用作	-2239
第八	-2240
那些	-2241
同盟	-2242
出生于	-2243
大致	-2244
重庆	-2245
几乎	-2246
▁Ch	-2247
源于	-2248
95	-2249
他被	-2250
十六	-2251
月初	-2252
克拉	-2253
馬來	-2254
通道	-2255
在日本	-2256
鄉試	-2257
业务	-2258
all	-2259
未來	-2260
代理	-2261
次年	-2262
......	-2263
▁是	-2264
官员	-2265
突然	-2266
一定	-2267
武汉	-2268
分配	-2269
申請	-2270
本站	-2271
克的	-2272
ge	-2273
成本	-2274
1000	-2275
财政	-2276
城鎮	-2277
王國	-2278
BC	-2279
退出	-2280
1991	-2281
ive	-2282
一帶	-2283
退休	-2284
OS	-2285
國民黨	-2286
球會	-2287
1993	-2288
度的	-2289
作戰	-2290
资格	-2291
遗址	-2292
ran	-2293
多個	-2294
锦标	-2295
黑色	-2296
博物館	-2297
ip	-2298
十三	-2299
是位於美國	-2300
赢得	-2301
中被	-2302
人們	-2303
▁In	-2304
條約	-2305
原子	-2306
立即	-2307
发射	-2308
中国人民解放军	-2309
上有	-2310
尔特	-2311
大多数	-2312
應用	-2313
86	-2314
市政府	-2315
年輕	-2316
每个	-2317
君主	-2318
江西	-2319
食品	-2320
印尼	-2321
热带	-2322
]]	-2323
小學	-2324
indows	-2325
锦标赛	-2326
撤销	-2327
允许	-2328
計算	-2329
小型	-2330
法官	-2331
训练	-2332
羽毛球	-2333
投降	-2334
沿海	-2335
基于	-2336
if	-2337
身體	-2338
▁/	-2339
醫療	-2340
频道	-2341
马克	-2342
北海	-2343
定居	-2344
家人	-2345
BS	-2346
[[	-2347
批评	-2348
AR	-2349
南至	-2350
阻止	-2351
先生	-2352
戰役	-2353
結婚	-2354
法蘭	-2355
發布	-2356
总理	-2357
击败	-2358
而成	-2359
地區的	-2360
主題	-2361
io	-2362
旅游	-2363
指控	-2364
深度	-2365
机关	-2366
保守	-2367
网站	-2368
:00	-2369
进一步	-2370
莫斯科	-2371
討論	-2372
相对	-2373
民眾	-2374
减少	-2375
房屋	-2376
空軍	-2377
以前	-2378
年世界	-2379
电视台	-2380
▁2024	-2381
游泳	-2382
錦標賽	-2383
努力	-2384
路口	-2385
破壞	-2386
试图	-2387
长期	-2388
對手	-2389
教會	-2390
御史	-2391
实施	-2392
並沒有	-2393
维亚	-2394
挪威	-2395
武装	-2396
IN	-2397
▁a	-2398
增长	-2399
87	-2400
配音	-2401
淡水	-2402
:),	-2403
被認為	-2404
舉人	-2405
陆军	-2406
上述	-2407
状态	-2408
記錄	-2409
建议	-2410
站台	-2411
解决	-2412
IC	-2413
能量	-2414
曾经	-2415
管辖	-2416
▁7	-2417
▁2008	-2418
北方	-2419
进攻	-2420
军区	-2421
名称	-2422
山西	-2423
经常	-2424
嘉靖	-2425
留下	-2426
英语	-2427
函数	-2428
選手	-2429
ity	-2430
分钟	-2431
家的	-2432
課程	-2433
一致	-2434
代表大会	-2435
()。	-2436
圖書	-2437
地理	-2438
作战	-2439
患者	-2440
有時	-2441
特里	-2442
ER	-2443
中華人民共和國	-2444
波蘭	-2445
国会	-2446
比亞	-2447
合約	-2448
ack	-2449
比如	-2450
進一步	-2451
资源	-2452
了解	-2453
毕业于	-2454
年夏季奥林匹克运动会	-2455
合成	-2456
團隊	-2457
相互	-2458
宣傳	-2459
▁de	-2460
-0	-2461
AM	-2462
少女	-2463
以外	-2464
現場	-2465
解決	-2466
服役	-2467
导演	-2468
年後	-2469
意志	-2470
解散	-2471
數量	-2472
自身	-2473
先後	-2474
准备	-2475
确定	-2476
ant	-2477
的一种	-2478
襲擊	-2479
修建	-2480
規劃	-2481
雙方	-2482
ich	-2483
廣告	-2484
拍摄	-2485
領域	-2486
奪得	-2487
登上	-2488
軌道	-2489
德的	-2490
600	-2491
國防	-2492
由此	-2493
袭击	-2494
提供了	-2495
不斷	-2496
内部	-2497
廣泛	-2498
国的	-2499
創立	-2500
一段	-2501
價值	-2502
的村	-2503
派遣	-2504
社區	-2505
為輻鰭魚綱	-2506
火山	-2507
的水	-2508
克里斯	-2509
城堡	-2510
副主席	-2511
第二次世界大	-2512
▁“	-2513
宪法	-2514
空中	-2515
穆斯	-2516
公爵	-2517
▁9	-2518
破坏	-2519
加州	-2520
史上	-2521
如下	-2522
AC	-2523
天皇	-2524
ect	-2525
调整	-2526
ry	-2527
ong	-2528
他也	-2529
主要是	-2530
州府	-2531
lay	-2532
特定	-2533
行政區	-2534
同样	-2535
總督	-2536
原住	-2537
時任	-2538
處的	-2539
。2010	-2540
牠們	-2541
其中包括	-2542
解釋	-2543
的影響	-2544
球場	-2545
84	-2546
棲息在	-2547
被认为	-2548
三世	-2549
的名字	-2550
不到	-2551
。2019	-2552
In	-2553
朝廷	-2554
保障	-2555
試圖	-2556
銷售	-2557
它是	-2558
副主任	-2559
時的	-2560
突破	-2561
固定	-2562
專業	-2563
在那	-2564
政协	-2565
而非	-2566
議院	-2567
人數	-2568
联系	-2569
ber	-2570
年到	-2571
官員	-2572
ain	-2573
下令	-2574
天的	-2575
5,	-2576
-2	-2577
球季	-2578
已被	-2579
社会主义	-2580
科夫	-2581
給予	-2582
群岛	-2583
...	-2584
车辆	-2585
。2018	-2586
伦敦	-2587
从而	-2588
加拉	-2589
平原	-2590
接收	-2591
在香港	-2592
挑戰	-2593
相当	-2594
十五	-2595
亦是	-2596
原名	-2597
依然	-2598
常見	-2599
利益	-2600
卡拉	-2601
里的	-2602
ell	-2603
eg	-2604
年開始	-2605
。2013	-2606
基於	-2607
執導	-2608
软件	-2609
客运	-2610
形目	-2611
▁2009	-2612
,18	-2613
此次	-2614
助理	-2615
制定	-2616
国内	-2617
暴力	-2618
十八	-2619
總部	-2620
進攻	-2621
大多數	-2622
石油	-2623
可以在	-2624
並非	-2625
測試	-2626
丈夫	-2627
令人	-2628
半島	-2629
证明	-2630
衝突	-2631
一枚	-2632
。190	-2633
世界上	-2634
所有的	-2635
原始	-2636
二人	-2637
用來	-2638
體的	-2639
還是	-2640
方言	-2641
期的	-2642
one	-2643
▁g	-2644
其中一種	-2645
主要的	-2646
大會	-2647
建立了	-2648
是一座	-2649
从事	-2650
弗朗	-2651
斯蒂	-2652
改制	-2653
支付	-2654
廣場	-2655
式的	-2656
日治	-2657
設備	-2658
访问	-2659
前身	-2660
承認	-2661
辦公	-2662
▁李	-2663
卡尔	-2664
升格	-2665
留在	-2666
的影响	-2667
▁該	-2668
师范	-2669
刺史	-2670
西安	-2671
高级	-2672
排行	-2673
洛杉	-2674
ort	-2675
办公室	-2676
爾的	-2677
統一	-2678
臺南	-2679
哈尔	-2680
1960	-2681
已有	-2682
十四	-2683
將會	-2684
根廷	-2685
更名为	-2686
考慮	-2687
臨時	-2688
120	-2689
並未	-2690
鎮區	-2691
ens	-2692
东临	-2693
ace	-2694
类型	-2695
上市	-2696
變成	-2697
佔領	-2698
城镇	-2699
▁n	-2700
應該	-2701
浙江省	-2702
學位	-2703
尼克	-2704
历史上	-2705
内陆	-2706
能源	-2707
威尔	-2708
引發	-2709
体的	-2710
內部	-2711
召开	-2712
往往	-2713
本地	-2714
拆除	-2715
波斯	-2716
發電	-2717
奥地利	-2718
婚姻	-2719
临时	-2720
法的	-2721
確定	-2722
修正	-2723
資源	-2724
ian	-2725
旅行	-2726
走向	-2727
穆斯林	-2728
大幅	-2729
改变	-2730
協議	-2731
的不	-2732
青岛	-2733
義大利	-2734
比较	-2735
管理局	-2736
家中	-2737
從事	-2738
连续	-2739
东西	-2740
国防	-2741
成績	-2742
荷兰	-2743
尤其是	-2744
成立的	-2745
利的	-2746
800	-2747
也會	-2748
更新	-2749
公安	-2750
参加了	-2751
國內	-2752
無人	-2753
空军	-2754
而不是	-2755
舉行的	-2756
产业	-2757
康熙	-2758
人口为	-2759
而不	-2760
1988	-2761
出售	-2762
输入	-2763
维奇	-2764
也就是	-2765
市中心	-2766
广东省	-2767
。2016	-2768
继承	-2769
到达	-2770
奧運	-2771
引发	-2772
是香港	-2773
起来	-2774
以北	-2775
玻璃	-2776
埃尔	-2777
的同	-2778
首府	-2779
广西	-2780
演奏	-2781
在中	-2782
爾蘭	-2783
維亞	-2784
商品	-2785
意为	-2786
教練	-2787
產業	-2788
计算机	-2789
其中男性	-2790
列表	-2791
派出	-2792
結合	-2793
82	-2794
JR	-2795
儿童	-2796
發出	-2797
职务	-2798
為一	-2799
83	-2800
支流	-2801
小组	-2802
說法	-2803
。12	-2804
奥运会	-2805
选手	-2806
十二年	-2807
國的	-2808
卫生	-2809
每個	-2810
證明	-2811
议院	-2812
爭議	-2813
组建	-2814
联合国	-2815
阿根廷	-2816
天然	-2817
金屬	-2818
是一颗	-2819
昭和	-2820
縣的一個	-2821
靠近	-2822
▁新	-2823
各自	-2824
得到了	-2825
名單	-2826
德拉	-2827
觀察	-2828
考古	-2829
萬人	-2830
關注	-2831
歡迎	-2832
候選	-2833
打算	-2834
指示	-2835
81	-2836
明顯	-2837
在美國	-2838
日军	-2839
發售	-2840
1945	-2841
。2008	-2842
習性	-2843
菲律賓	-2844
例子	-2845
代码	-2846
恆星	-2847
推動	-2848
理解	-2849
又称	-2850
公元前	-2851
喬治	-2852
弟弟	-2853
分裂	-2854
Al	-2855
高於	-2856
南非	-2857
▁根据	-2858
布里	-2859
得名	-2860
上升	-2861
在這	-2862
市长	-2863
时的	-2864
電台	-2865
数字	-2866
科学院	-2867
其中一	-2868
第一个	-2869
共產	-2870
市区	-2871
此時	-2872
加利福	-2873
-4	-2874
多數	-2875
结合	-2876
校长	-2877
发现了	-2878
反映	-2879
乔治	-2880
解释	-2881
事業	-2882
完工	-2883
最低	-2884
治疗	-2885
受傷	-2886
学会	-2887
運作	-2888
不会	-2889
过程中	-2890
位于中国	-2891
ON	-2892
生於	-2893
▁2007	-2894
是美国	-2895
180	-2896
图书馆	-2897
斯拉夫	-2898
风暴	-2899
以南	-2900
喜歡	-2901
港口	-2902
特拉	-2903
五月	-2904
。2015	-2905
打擊	-2906
ED	-2907
▁h	-2908
風暴	-2909
座標	-2910
是一部	-2911
必要	-2912
电力	-2913
卫星	-2914
移動	-2915
本人	-2916
立方	-2917
IS	-2918
化學	-2919
中期	-2920
席位	-2921
另有	-2922
來說	-2923
艦隊	-2924
▁12	-2925
7,	-2926
尔的	-2927
▁v	-2928
用途	-2929
面對	-2930
症状	-2931
第一個	-2932
视频	-2933
AN	-2934
胜利	-2935
乐队	-2936
成都	-2937
警告	-2938
體系	-2939
质量	-2940
qu	-2941
日正式	-2942
。2021	-2943
价值	-2944
但他	-2945
开通	-2946
最後一	-2947
古典	-2948
承认	-2949
und	-2950
器的	-2951
1989	-2952
。2017	-2953
利斯	-2954
柴油	-2955
。2014	-2956
王子	-2957
殖民地	-2958
農業	-2959
表達	-2960
無綫	-2961
起來	-2962
ss	-2963
条约	-2964
圖書館	-2965
他曾代表	-2966
一切	-2967
外交部	-2968
愛爾蘭	-2969
當時的	-2970
其餘	-2971
原住民	-2972
记者	-2973
制的	-2974
月在	-2975
针对	-2976
山东省	-2977
▁他	-2978
格拉	-2979
出版社	-2980
的第二	-2981
雷斯	-2982
收藏	-2983
途中	-2984
詹姆斯	-2985
形容	-2986
凌晨	-2987
医学	-2988
观察	-2989
並以	-2990
的部分	-2991
同性	-2992
物質	-2993
上下	-2994
自动	-2995
-3	-2996
ame	-2997
▁小行星	-2998
的位置	-2999
運動會	-3000
貝爾	-3001
透露	-3002
猶太	-3003
現象	-3004
劇情	-3005
年后	-3006
使其	-3007
特勒	-3008
▁曾	-3009
總理	-3010
物的	-3011
▁2006	-3012
。9	-3013
抵抗	-3014
援助	-3015
在他	-3016
生活習性	-3017
政黨	-3018
。2011	-3019
接替	-3020
經歷	-3021
衛生	-3022
加速	-3023
超越	-3024
少數	-3025
的政治	-3026
政权	-3027
米尔	-3028
man	-3029
下一	-3030
勝利	-3031
小組	-3032
強烈	-3033
很大	-3034
日期	-3035
生存	-3036
估計	-3037
州刺史	-3038
这里	-3039
不断	-3040
气候	-3041
生活習性不明	-3042
ark	-3043
1984	-3044
确诊病例	-3045
首相	-3046
高級	-3047
CO	-3048
提及	-3049
第九	-3050
劳动	-3051
升任	-3052
含有	-3053
當局	-3054
的神	-3055
威脅	-3056
意味	-3057
以後	-3058
收集	-3059
路段	-3060
our	-3061
1950	-3062
城区	-3063
達成	-3064
萬美元	-3065
綜合	-3066
知縣	-3067
sp	-3068
站的	-3069
赛事	-3070
AP	-3071
可能會	-3072
機關	-3073
洛克	-3074
防止	-3075
生成	-3076
▁to	-3077
总部	-3078
冲突	-3079
杭州	-3080
ah	-3081
成立於	-3082
文明	-3083
每天	-3084
-21	-3085
法庭	-3086
机械	-3087
▁「	-3088
參選	-3089
意外	-3090
未知	-3091
首播	-3092
的一種	-3093
大廈	-3094
西接	-3095
在中国	-3096
ep	-3097
后者	-3098
啟用	-3099
日軍	-3100
。2012	-3101
。8	-3102
訪問	-3103
年時	-3104
经营	-3105
消失	-3106
的一些	-3107
Windows	-3108
陷入	-3109
ff	-3110
在一起	-3111
厘米	-3112
数学	-3113
特色	-3114
與其他	-3115
成为了	-3116
公佈	-3117
的手	-3118
大小	-3119
小学	-3120
-6	-3121
▁王	-3122
性能	-3123
”)	-3124
吉林	-3125
同日	-3126
月起	-3127
淘汰	-3128
几个	-3129
。2020	-3130
臺中	-3131
考虑	-3132
半岛	-3133
平民	-3134
代表团	-3135
拿下	-3136
近年	-3137
舞蹈	-3138
ID	-3139
強調	-3140
狀況	-3141
西斯	-3142
两人	-3143
加入了	-3144
金属	-3145
94	-3146
年轻	-3147
英里	-3148
競爭	-3149
常见	-3150
天文台	-3151
大阪	-3152
。10	-3153
亿元	-3154
年开始	-3155
球员	-3156
抵達	-3157
每日	-3158
物质	-3159
视为	-3160
王国	-3161
ey	-3162
俱樂	-3163
十九	-3164
持有	-3165
毛泽	-3166
江苏省	-3167
动画	-3168
专家	-3169
首席	-3170
來源	-3171
旅遊	-3172
旨在	-3173
在美国	-3174
公斤	-3175
抵达	-3176
的形式	-3177
似乎	-3178
应该	-3179
特征	-3180
主張	-3181
正面	-3182
▁卡	-3183
列為	-3184
铜牌	-3185
观点	-3186
odice	-3187
允許	-3188
巴基	-3189
穩定	-3190
纪录	-3191
聯合國	-3192
我的	-3193
测试	-3194
ight	-3195
權力	-3196
收到	-3197
的角色	-3198
ite	-3199
。“	-3200
以便	-3201
恩省	-3202
有时	-3203
爵士	-3204
另一方面	-3205
過程中	-3206
發起	-3207
编辑	-3208
布尔	-3209
表达	-3210
起义	-3211
通知	-3212
美軍	-3213
长的	-3214
蒙特	-3215
放棄	-3216
明星	-3217
現今	-3218
伊斯蘭	-3219
首位	-3220
月球	-3221
ew	-3222
参谋	-3223
此後	-3224
互相	-3225
壓力	-3226
到達	-3227
發佈	-3228
米爾	-3229
都在	-3230
四川省	-3231
▁这	-3232
▁st	-3233
創辦	-3234
关注	-3235
教宗	-3236
裝甲	-3237
光緒	-3238
科的其中一種	-3239
駕駛	-3240
塞爾	-3241
星等	-3242
儀式	-3243
河的	-3244
命名為	-3245
藝人	-3246
的原因	-3247
ric	-3248
信号	-3249
毛泽东	-3250
移动	-3251
创办	-3252
学术	-3253
萬元	-3254
-19	-3255
失敗	-3256
派的	-3257
理想	-3258
偶像	-3259
多人	-3260
少数	-3261
常委	-3262
采取	-3263
泰國	-3264
销售	-3265
oh	-3266
預計	-3267
為止	-3268
ver	-3269
阿里	-3270
並將	-3271
"),	-3272
直播	-3273
栽培	-3274
非法	-3275
統計	-3276
)、《	-3277
污染	-3278
开展	-3279
全長	-3280
隊的	-3281
96	-3282
任期	-3283
辽宁	-3284
,197	-3285
用来	-3286
双方	-3287
而該地	-3288
開設	-3289
民主黨	-3290
創造	-3291
首歌	-3292
ube	-3293
内陆省份	-3294
方便	-3295
知识	-3296
河道	-3297
回歸	-3298
司令部	-3299
ys	-3300
在新	-3301
燃料	-3302
學名	-3303
接觸	-3304
秘書	-3305
購買	-3306
弗里	-3307
式月台	-3308
市長	-3309
縣人	-3310
亞歷	-3311
的城市	-3312
Go	-3313
标志	-3314
布朗	-3315
的反	-3316
京都	-3317
以此	-3318
通信	-3319
確認	-3320
工厂	-3321
德语	-3322
中最	-3323
吸收	-3324
农村	-3325
只要	-3326
副书记	-3327
时任	-3328
本片	-3329
得主	-3330
是美國	-3331
公交	-3332
已知	-3333
卑斯	-3334
爾德	-3335
翻译	-3336
▁由于	-3337
讨论	-3338
相同的	-3339
周年	-3340
。11	-3341
,9	-3342
四个	-3343
此时	-3344
是烏克蘭	-3345
工廠	-3346
斯洛	-3347
院长	-3348
金山	-3349
cn	-3350
動作	-3351
局长	-3352
醫學	-3353
地點	-3354
经历	-3355
不要	-3356
并入	-3357
马尔	-3358
平衡	-3359
领导人	-3360
分類	-3361
亞目	-3362
月底	-3363
兩種	-3364
两种	-3365
回應	-3366
身分	-3367
氣候	-3368
聚集	-3369
伊斯兰	-3370
馬來西亞	-3371
所屬	-3372
律師	-3373
现象	-3374
。2006	-3375
所在地	-3376
失败	-3377
92	-3378
创建	-3379
公眾	-3380
有著	-3381
01	-3382
展开	-3383
獲得了	-3384
打破	-3385
省的	-3386
今日	-3387
逐步	-3388
ord	-3389
1986	-3390
中国大陆的	-3391
;)	-3392
追溯	-3393
救援	-3394
明显	-3395
克林	-3396
▁11	-3397
合法	-3398
德意志	-3399
未有	-3400
遭受	-3401
银牌	-3402
工作室	-3403
。5	-3404
布雷	-3405
处于	-3406
天堂	-3407
紅色	-3408
方面的	-3409
签署	-3410
網絡	-3411
座標為	-3412
理由	-3413
奧地利	-3414
奥斯	-3415
700	-3416
十月	-3417
单曲	-3418
巴基斯坦	-3419
AS	-3420
位的	-3421
入選	-3422
接任	-3423
改编	-3424
獎項	-3425
比赛中	-3426
▁X	-3427
1985	-3428
哲学	-3429
航天	-3430
古老	-3431
這次	-3432
ore	-3433
。2009	-3434
巨大	-3435
自我	-3436
sh	-3437
做出	-3438
原先	-3439
,3	-3440
理工	-3441
▁此外	-3442
三人	-3443
▁17	-3444
1949	-3445
说法	-3446
咖啡	-3447
遭遇	-3448
ith	-3449
长江	-3450
稳定	-3451
民間	-3452
積極	-3453
观众	-3454
女兒	-3455
历任	-3456
地鐵	-3457
的时候	-3458
来说	-3459
uc	-3460
的最	-3461
策略	-3462
了他	-3463
傳說	-3464
。7	-3465
政党	-3466
的所有	-3467
的時候	-3468
被捕	-3469
唐朝	-3470
▁西	-3471
攝影	-3472
張專輯	-3473
ai	-3474
俱樂部	-3475
勢力	-3476
商人	-3477
融合	-3478
,195	-3479
境内共有	-3480
以上的	-3481
福建省	-3482
人数	-3483
隨即	-3484
教育部	-3485
市區	-3486
裝置	-3487
評價	-3488
武裝	-3489
是德国	-3490
格勒	-3491
立法會	-3492
pe	-3493
滨海	-3494
医生	-3495
教会	-3496
主事	-3497
威爾	-3498
实行	-3499
参赛	-3500
多名	-3501
。2007	-3502
IP	-3503
▁l	-3504
動力	-3505
替代	-3506
收購	-3507
萨克	-3508
An	-3509
争议	-3510
什么	-3511
邊界	-3512
該村	-3513
,5	-3514
的方法	-3515
早上	-3516
创造	-3517
研究院	-3518
全长	-3519
更多的	-3520
卡爾	-3521
撤退	-3522
97	-3523
布鲁	-3524
维埃	-3525
ast	-3526
列为	-3527
調整	-3528
使用了	-3529
传播	-3530
市政	-3531
接下	-3532
多种	-3533
河南省	-3534
此事	-3535
維爾	-3536
成立了	-3537
,8	-3538
组合	-3539
五十	-3540
想要	-3541
了他的	-3542
戲劇	-3543
集合	-3544
复杂	-3545
试验	-3546
觀測	-3547
1987	-3548
明朝政治人物	-3549
施工	-3550
演化	-3551
ug	-3552
航班	-3553
陕西	-3554
1.5	-3555
部署	-3556
提出了	-3557
差異	-3558
飓风	-3559
海上	-3560
現任	-3561
,),	-3562
分类	-3563
經驗	-3564
設定	-3565
大獎	-3566
意识	-3567
歲時	-3568
聲明	-3569
甘肃	-3570
武帝	-3571
▁巴	-3572
公众	-3573
威胁	-3574
憲法	-3575
至於	-3576
出現在	-3577
水库	-3578
因其	-3579
藥物	-3580
來到	-3581
民主党	-3582
聚落	-3583
教学	-3584
。。	-3585
分支	-3586
意思	-3587
NBA	-3588
消防	-3589
區議會	-3590
中华人民共和国政治人物	-3591
伊利	-3592
廣州	-3593
斯托	-3594
機械	-3595
陸續	-3596
河谷	-3597
安装	-3598
-{}-	-3599
93	-3600
。6	-3601
政權	-3602
四個	-3603
卢瓦尔省	-3604
1900	-3605
都被	-3606
起初	-3607
法兰	-3608
候選人	-3609
MV	-3610
不滿	-3611
大夫	-3612
密切	-3613
▁2005	-3614
codice	-3615
周边	-3616
覆盖	-3617
證據	-3618
嘉義	-3619
请求	-3620
商店	-3621
通往	-3622
北海道	-3623
呈現	-3624
征服	-3625
的重	-3626
翻譯	-3627
her	-3628
結束後	-3629
并没有	-3630
弗雷	-3631
成立于	-3632
权力	-3633
會試	-3634
海南	-3635
社交	-3636
上是	-3637
英格兰	-3638
採取	-3639
一系列	-3640
城的	-3641
内蒙古	-3642
合同	-3643
夫卡	-3644
贵州	-3645
隸屬	-3646
馬克	-3647
发起	-3648
这次	-3649
ock	-3650
动力	-3651
桃園	-3652
抗議	-3653
通用	-3654
可在	-3655
蘇格蘭	-3656
意識	-3657
萬曆	-3658
大革命	-3659
(1	-3660
伯爵	-3661
上陣	-3662
率领	-3663
以后	-3664
出來	-3665
第一位	-3666
行政院	-3667
編劇	-3668
沿岸	-3669
落成	-3670
南極洲	-3671
地圖	-3672
▁=	-3673
战略	-3674
机会	-3675
嘗試	-3676
龙江	-3677
路易斯	-3678
▁The	-3679
繁殖	-3680
早年	-3681
,4	-3682
名单	-3683
汉族	-3684
日下午	-3685
日於	-3686
海平面	-3687
起源	-3688
过去	-3689
各类	-3690
的多	-3691
安娜	-3692
整合	-3693
新竹	-3694
一部	-3695
结束后	-3696
氣旋	-3697
當年	-3698
任教	-3699
布魯	-3700
are	-3701
▁for	-3702
率为	-3703
电台	-3704
ont	-3705
硕士	-3706
芬兰	-3707
涉嫌	-3708
領土	-3709
海峡	-3710
日上午	-3711
為熱帶	-3712
塞纳	-3713
風險	-3714
ib	-3715
▁南	-3716
贡献	-3717
感染者	-3718
放在	-3719
星系	-3720
東西	-3721
万美元	-3722
伊拉克	-3723
下了	-3724
修道	-3725
對抗	-3726
本作	-3727
象徵	-3728
资金	-3729
以西	-3730
玛丽	-3731
▁中	-3732
行人	-3733
隶属于	-3734
顧問	-3735
格的	-3736
上了	-3737
声称	-3738
永久	-3739
鄰近	-3740
一小時	-3741
中华民国	-3742
。4	-3743
火星	-3744
▁香港	-3745
他还	-3746
加哥	-3747
都会	-3748
团队	-3749
▁圣	-3750
帶來	-3751
"。	-3752
日报	-3753
今天	-3754
很少	-3755
史密	-3756
芝加哥	-3757
行政区	-3758
安裝	-3759
日常	-3760
查理	-3761
250	-3762
股份有限公司	-3763
歲的	-3764
變得	-3765
1982	-3766
事實	-3767
聲音	-3768
領袖	-3769
被告	-3770
领土	-3771
目的是	-3772
积极	-3773
夏令	-3774
巡迴	-3775
购买	-3776
區為	-3777
约为	-3778
160	-3779
分之一	-3780
內閣	-3781
主持人	-3782
人民代表大会	-3783
實現	-3784
年齡	-3785
定期	-3786
改建	-3787
長度	-3788
主力	-3789
角度	-3790
典禮	-3791
員工	-3792
西里	-3793
奧林匹克	-3794
邀请	-3795
長官	-3796
後期	-3797
放弃	-3798
外国	-3799
大聯盟	-3800
的小行星	-3801
刑事	-3802
围绕	-3803
女王	-3804
特朗	-3805
致力	-3806
联合会	-3807
族群	-3808
(13	-3809
但因	-3810
就會	-3811
(12	-3812
則為	-3813
则是	-3814
美術	-3815
相反	-3816
職務	-3817
道德	-3818
到的	-3819
的上	-3820
网球	-3821
仪式	-3822
当局	-3823
km	-3824
亚历	-3825
介紹	-3826
天下	-3827
福德	-3828
信號	-3829
降雨	-3830
ure	-3831
四月	-3832
聲稱	-3833
ert	-3834
後者	-3835
最高的	-3836
ment	-3837
公告	-3838
印刷	-3839
影像	-3840
數位	-3841
校長	-3842
坐标	-3843
结婚	-3844
ies	-3845
山西省	-3846
ex	-3847
体系	-3848
地中	-3849
損失	-3850
帶領	-3851
智能	-3852
境內	-3853
省道	-3854
son	-3855
分校	-3856
占地	-3857
山東	-3858
PS	-3859
,2	-3860
此站	-3861
新建	-3862
队伍	-3863
丹尼	-3864
任職	-3865
奥尔	-3866
花園	-3867
阳市	-3868
候选	-3869
▁截至	-3870
教师	-3871
編輯	-3872
非建制	-3873
侍郎	-3874
入境	-3875
种族	-3876
青少年	-3877
傳播	-3878
成年	-3879
转移	-3880
▁拉	-3881
莱茵	-3882
停靠	-3883
干部	-3884
特徵	-3885
另一個	-3886
十七	-3887
巴勒	-3888
-10	-3889
平等	-3890
棒球	-3891
该省	-3892
貢獻	-3893
三月	-3894
》("	-3895
驱逐	-3896
立陶	-3897
增加了	-3898
,1	-3899
尔兰	-3900
巴拉	-3901
軟體	-3902
,196	-3903
出入口	-3904
被視為	-3905
勝出	-3906
難以	-3907
▁有	-3908
對此	-3909
入选	-3910
劇本	-3911
清楚	-3912
简单	-3913
_1	-3914
軍的	-3915
一天	-3916
理查	-3917
食用	-3918
億美元	-3919
所採用	-3920
想法	-3921
知識	-3922
魔法	-3923
aw	-3924
湖泊	-3925
質量	-3926
大量的	-3927
接著	-3928
較為	-3929
受害	-3930
法令	-3931
权利	-3932
財政	-3933
的情況下	-3934
經理	-3935
ign	-3936
扩大	-3937
损失	-3938
代替	-3939
巡洋	-3940
现任	-3941
就在	-3942
辦公室	-3943
的歌曲	-3944
保險	-3945
评价	-3946
立陶宛	-3947
东方	-3948
畢業於	-3949
河北省	-3950
簡單	-3951
即位	-3952
子女	-3953
,6	-3954
唯一的	-3955
享年	-3956
東方	-3957
。2022	-3958
場比賽	-3959
1979	-3960
91	-3961
周围	-3962
斯在	-3963
VD	-3964
交叉	-3965
仍有	-3966
巨大的	-3967
医疗	-3968
如今	-3969
1972	-3970
恒星	-3971
格里	-3972
国民党	-3973
大楼	-3974
,7	-3975
创立	-3976
序列	-3977
簽署	-3978
事实	-3979
其實	-3980
地上	-3981
左翼	-3982
非建制地區	-3983
居住在	-3984
的性	-3985
手段	-3986
格雷	-3987
东北部	-3988
完成了	-3989
az	-3990
碼頭	-3991
资料	-3992
劇集	-3993
专门	-3994
排名第	-3995
興趣	-3996
的情况下	-3997
一百	-3998
使用者	-3999
分佈	-4000
常务	-4001
电视剧	-4002
黑龙江	-4003
主题	-4004
办理	-4005
此前	-4006
身上	-4007
與其	-4008
翌年	-4009
規則	-4010
责任	-4011
日本的	-4012
二月	-4013
什麼	-4014
意义	-4015
率領	-4016
華人	-4017
量子	-4018
。17	-4019
。3	-4020
共產黨	-4021
美术	-4022
ond	-4023
具体	-4024
早在	-4025
eb	-4026
检测	-4027
溫度	-4028
1983	-4029
近代	-4030
同時該地	-4031
办事	-4032
設於	-4033
ll	-4034
会在	-4035
瑟夫	-4036
他和	-4037
关闭	-4038
ust	-4039
国家队	-4040
提交	-4041
岩石	-4042
证据	-4043
成為了	-4044
所需	-4045
线的	-4046
分布在	-4047
數字	-4048
装备	-4049
交界	-4050
八月	-4051
神社	-4052
防空	-4053
指导	-4054
關閉	-4055
生长于	-4056
被任命	-4057
做法	-4058
克莱	-4059
研究生	-4060
本線	-4061
英呎	-4062
學術	-4063
估计	-4064
複雜	-4065
除此	-4066
湖南省	-4067
接触	-4068
格林	-4069
主打	-4070
權利	-4071
规则	-4072
ial	-4073
大家	-4074
值得	-4075
登陸	-4076
種族	-4077
班次	-4078
的有	-4079
多数	-4080
七月	-4081
依據	-4082
未来	-4083
1948	-4084
上帝	-4085
學會	-4086
iz	-4087
oy	-4088
不仅	-4089
现场	-4090
缅甸	-4091
魚類	-4092
丹麦	-4093
贵族	-4094
排行榜	-4095
▁金	-4096
約為	-4097
電話	-4098
YouT	-4099
日由	-4100
篮球	-4101
迷你	-4102
畢業後	-4103
军的	-4104
經典	-4105
被認為是	-4106
。2005	-4107
pp	-4108
太后	-4109
(2001	-4110
▁月	-4111
警報	-4112
》《	-4113
主管	-4114
延長	-4115
瑪麗	-4116
而該地的	-4117
同名	-4118
間的	-4119
ire	-4120
澳大利亞	-4121
总督	-4122
神经	-4123
中式	-4124
大賽	-4125
民众	-4126
尋找	-4127
。(	-4128
鎮區的	-4129
仍在	-4130
妇女	-4131
泰国	-4132
爱尔兰	-4133
防禦	-4134
更名為	-4135
住在	-4136
控股	-4137
疫苗	-4138
领袖	-4139
南海	-4140
并未	-4141
装置	-4142
銷量	-4143
▁2004	-4144
記憶	-4145
港元	-4146
ary	-4147
整體	-4148
ee	-4149
根本	-4150
铁道	-4151
的概念	-4152
1976	-4153
竞争	-4154
EC	-4155
IT	-4156
均为	-4157
常常	-4158
弗拉	-4159
質疑	-4160
是南極洲	-4161
智慧	-4162
注册	-4163
九月	-4164
東南部	-4165
鎮區的面積為	-4166
尼古	-4167
攻打	-4168
比利时	-4169
隊伍	-4170
声明	-4171
抗议	-4172
巴赫	-4173
斯和	-4174
六月	-4175
潜艇	-4176
通车	-4177
供應	-4178
岁的	-4179
探索	-4180
推翻	-4181
認識	-4182
两次	-4183
其在	-4184
教師	-4185
連任	-4186
阶级	-4187
衛星	-4188
司馬	-4189
殺死	-4190
ala	-4191
▁Pro	-4192
優勢	-4193
泰勒	-4194
当时的	-4195
来源	-4196
激烈	-4197
纳粹	-4198
改制為	-4199
Sh	-4200
商場	-4201
也曾	-4202
塔尼	-4203
接管	-4204
院士	-4205
東北部	-4206
其余	-4207
ng	-4208
和大	-4209
对应	-4210
成長	-4211
本科	-4212
所處的	-4213
保加	-4214
最早的	-4215
▁這	-4216
夏令時間	-4217
對方	-4218
擴大	-4219
:30	-4220
▁而	-4221
提出的	-4222
信徒	-4223
島嶼	-4224
主辦	-4225
終於	-4226
自此	-4227
說明	-4228
配置	-4229
hant	-4230
au	-4231
一带	-4232
申请	-4233
哥伦	-4234
籃球	-4235
维持	-4236
ogle	-4237
万元	-4238
尚书	-4239
对象	-4240
連載	-4241
来到	-4242
中间	-4243
新西	-4244
的生活	-4245
PC	-4246
黃金	-4247
物品	-4248
那么	-4249
出现在	-4250
取得了	-4251
1978	-4252
事业	-4253
成熟	-4254
被认为是	-4255
导弹	-4256
ld	-4257
女主角	-4258
安徽省	-4259
山的	-4260
整体	-4261
條例	-4262
超级	-4263
不得不	-4264
1946	-4265
Ar	-4266
專門	-4267
编号	-4268
(10	-4269
是意大利	-4270
构成	-4271
效率	-4272
性別	-4273
言人	-4274
110	-4275
另一个	-4276
满足	-4277
转向	-4278
修道院	-4279
有一個	-4280
omp	-4281
危機	-4282
理念	-4283
用了	-4284
错误	-4285
促进	-4286
农民	-4287
名進士	-4288
則在	-4289
▁16	-4290
希特勒	-4291
,)	-4292
年中	-4293
边界	-4294
的音樂	-4295
下辖的一个	-4296
局的	-4297
錯誤	-4298
▁除了	-4299
一人	-4300
保安	-4301
华盛	-4302
委任	-4303
掌握	-4304
死刑	-4305
东京	-4306
对外	-4307
可前往	-4308
一條	-4309
强烈	-4310
官至	-4311
改名	-4312
首度	-4313
成就	-4314
转的小行星	-4315
的天	-4316
但由於	-4317
05	-4318
实验室	-4319
教士	-4320
證實	-4321
在北京	-4322
大街	-4323
资本	-4324
▁然而	-4325
亿美元	-4326
海拔為	-4327
湖北省	-4328
類型	-4329
华盛顿	-4330
受伤	-4331
山市	-4332
知府	-4333
行走	-4334
介绍	-4335
簽約	-4336
重返	-4337
飛彈	-4338
下半	-4339
道光	-4340
實際上	-4341
▁馬	-4342
捷克	-4343
(;)	-4344
用以	-4345
性和	-4346
矛盾	-4347
錄音	-4348
德尔	-4349
科會試	-4350
红色	-4351
大桥	-4352
形的	-4353
講述	-4354
有一个	-4355
並與	-4356
州的一个市镇	-4357
▁Y	-4358
推進	-4359
属的植物	-4360
的日本	-4361
、2	-4362
古巴	-4363
親王	-4364
調快	-4365
风险	-4366
的村莊	-4367
造成的	-4368
并将	-4369
律师	-4370
的時區為	-4371
調快一小時	-4372
同時該地設有	-4373
而該地所採用	-4374
同時該地設有夏令時間	-4375
而該地所採用的時區為	-4376
兩名	-4377
富汗	-4378
隊長	-4379
哥哥	-4380
引种	-4381
战后	-4382
局長	-4383
皆為	-4384
遇到	-4385
並由	-4386
伐克	-4387
中心的	-4388
MA	-4389
宁波	-4390
迪士	-4391
不僅	-4392
加強	-4393
妹妹	-4394
一级	-4395
江南	-4396
直升	-4397
大规模	-4398
▁小	-4399
克尔	-4400
年任	-4401
清代	-4402
裁判	-4403
由人工	-4404
1940	-4405
醫生	-4406
兩者	-4407
構成	-4408
欢迎	-4409
轉移	-4410
巴伐	-4411
省接壤	-4412
高於海平面	-4413
歌唱	-4414
有三	-4415
運行	-4416
了一個	-4417
无症状	-4418
所處的海拔為	-4419
所處的海拔為高於海平面	-4420
▁马	-4421
也可	-4422
的国家	-4423
深入	-4424
下的一个	-4425
迪士尼	-4426
在该	-4427
的地位	-4428
阿尔卑斯	-4429
漫画	-4430
南美洲	-4431
依照	-4432
歷史上	-4433
军官	-4434
国立	-4435
肺炎	-4436
1941	-4437
顏色	-4438
▁另外	-4439
光绪	-4440
加强	-4441
▁天	-4442
觀點	-4443
的世界	-4444
真實	-4445
▁伊	-4446
剧院	-4447
消費	-4448
首個	-4449
學系	-4450
菲利	-4451
骑兵	-4452
特朗普	-4453
頒獎	-4454
主流	-4455
機器	-4456
站房	-4457
课程	-4458
埔寨	-4459
通車	-4460
傳媒	-4461
组成的	-4462
意見	-4463
責任	-4464
顾问	-4465
推出的	-4466
保羅	-4467
是不	-4468
有着	-4469
違反	-4470
參考	-4471
日後	-4472
當天	-4473
里克	-4474
的國家	-4475
臺北市	-4476
1968	-4477
发动机	-4478
当地的	-4479
柬埔寨	-4480
引种栽培	-4481
(5	-4482
食性	-4483
了一些	-4484
▁re	-4485
發行的	-4486
个月	-4487
周邊	-4488
高原	-4489
▁於	-4490
明的	-4491
軍團	-4492
通訊	-4493
進黨	-4494
主义者	-4495
1975	-4496
由人工引种栽培	-4497
收购	-4498
即北美	-4499
無綫電視	-4500
召開	-4501
重量	-4502
向北	-4503
在西	-4504
德斯	-4505
廢除	-4506
曾是	-4507
Ph	-4508
福州	-4509
迫使	-4510
電力	-4511
的成員	-4512
娱乐	-4513
给了	-4514
河流域	-4515
外國	-4516
星等为	-4517
的代表	-4518
的電影	-4519
范围内	-4520
检查	-4521
色彩	-4522
ide	-4523
保罗	-4524
日被	-4525
ton	-4526
道的	-4527
▁目前	-4528
卡斯	-4529
華盛	-4530
1981	-4531
有多	-4532
▁三	-4533
成绩	-4534
价格	-4535
合唱	-4536
轟炸	-4537
里亚	-4538
在北	-4539
洛夫	-4540
資金	-4541
書院	-4542
的山峰	-4543
度使	-4544
馬拉	-4545
药物	-4546
華盛頓	-4547
阿富汗	-4548
郎中	-4549
ina	-4550
背鰭	-4551
選為	-4552
IV	-4553
罕默	-4554
地中海	-4555
正月	-4556
萨尔	-4557
。2004	-4558
会上	-4559
更是	-4560
HK	-4561
论文	-4562
ass	-4563
可能会	-4564
慈善	-4565
會員	-4566
衍生	-4567
▁2000	-4568
ET	-4569
提前	-4570
的发展	-4571
1947	-4572
像是	-4573
對象	-4574
工作的	-4575
tern	-4576
三甲	-4577
划归	-4578
经理	-4579
海拔高度為	-4580
地在	-4581
强调	-4582
餐廳	-4583
是西班牙	-4584
劇場	-4585
情報	-4586
▁从	-4587
冰川	-4588
面向	-4589
一支	-4590
他人	-4591
因此在	-4592
首歌曲	-4593
添加	-4594
都督	-4595
印度尼	-4596
基金會	-4597
的問題	-4598
進行了	-4599
印第	-4600
直路	-4601
指令	-4602
第一次世界大	-4603
地帶	-4604
搜索	-4605
装甲	-4606
(9	-4607
EN	-4608
它在	-4609
福利	-4610
07	-4611
免費	-4612
刺激	-4613
的後	-4614
命名为	-4615
尼亚州	-4616
启动	-4617
1920	-4618
竣工	-4619
ES	-4620
有机	-4621
考察	-4622
US	-4623
同步	-4624
展覽	-4625
適合	-4626
錄影	-4627
实际上	-4628
丹麥	-4629
队的	-4630
ach	-4631
的城鎮	-4632
1944	-4633
▁高	-4634
天后	-4635
波士	-4636
波特	-4637
较为	-4638
长沙	-4639
▁安	-4640
出来	-4641
大公	-4642
職棒	-4643
MS	-4644
对此	-4645
層水域	-4646
在該	-4647
進步	-4648
的能力	-4649
mm	-4650
撰寫	-4651
生态	-4652
觀光	-4653
加以	-4654
所属	-4655
委副书记	-4656
Sp	-4657
为中国	-4658
09	-4659
抑制	-4660
價格	-4661
,2010	-4662
发电	-4663
变得	-4664
活躍	-4665
麥克	-4666
人民币	-4667
分別為	-4668
1974	-4669
。「	-4670
分成	-4671
末期	-4672
收視	-4673
获得一枚	-4674
就有	-4675
在他的	-4676
协助	-4677
碩士	-4678
移居	-4679
亞歷山大	-4680
目前尚未	-4681
、《	-4682
地形	-4683
河口	-4684
男女	-4685
的時間	-4686
從而	-4687
曾被	-4688
、3	-4689
曾於	-4690
东南部	-4691
和人口	-4692
的最高	-4693
穆罕默	-4694
。2003	-4695
身体	-4696
部電影	-4697
史蒂	-4698
社群	-4699
算法	-4700
ick	-4701
的關係	-4702
因應	-4703
釋放	-4704
開幕	-4705
压力	-4706
的四	-4707
順利	-4708
领事	-4709
8,	-4710
向南	-4711
將於	-4712
校区	-4713
法蘭西	-4714
琉球	-4715
熱帶氣旋	-4716
被判	-4717
明确	-4718
无症状感染者	-4719
請求	-4720
指導	-4721
马拉	-4722
YouTube	-4723
平均海拔高度為	-4724
登場	-4725
促進	-4726
意義	-4727
他於	-4728
印象	-4729
知县	-4730
評估	-4731
印第安	-4732
而該地的平均海拔高度為	-4733
自殺	-4734
最多的	-4735
AL	-4736
▁由	-4737
尚書	-4738
測量	-4739
行政中心	-4740
党员	-4741
推廣	-4742
UN	-4743
位于中华人民共和国	-4744
境外	-4745
萨斯	-4746
▁20	-4747
方程	-4748
為人	-4749
民進黨	-4750
流量	-4751
用戶	-4752
位于该省	-4753
代的	-4754
山脉	-4755
號線	-4756
會有	-4757
工程师	-4758
新北	-4759
象征	-4760
▁2003	-4761
06	-4762
基隆	-4763
批判	-4764
管制	-4765
比賽中	-4766
生长于海拔	-4767
机器	-4768
百姓	-4769
int	-4770
米的地区	-4771
之戰	-4772
在於	-4773
年出版	-4774
歐盟	-4775
遗产	-4776
当年	-4777
粒子	-4778
资产	-4779
功率	-4780
动车	-4781
喜劇	-4782
突出	-4783
解除	-4784
隔离	-4785
通行	-4786
斯堡	-4787
月中	-4788
mer	-4789
在内的	-4790
第十一	-4791
大学的	-4792
困難	-4793
确认	-4794
帶有	-4795
德克	-4796
监督	-4797
版的	-4798
貴族	-4799
2.5	-4800
秘书长	-4801
中正	-4802
宣告	-4803
尼亞州	-4804
就读	-4805
租界	-4806
聯繫	-4807
樂隊	-4808
的西	-4809
爭取	-4810
數學	-4811
年代初	-4812
日凌晨	-4813
年春	-4814
孟加拉	-4815
1964	-4816
08	-4817
兩次	-4818
女孩	-4819
呼吸	-4820
青海	-4821
地名	-4822
等待	-4823
名舉人	-4824
AK	-4825
岁时	-4826
騎士	-4827
(2011	-4828
戏剧	-4829
洪水	-4830
早期的	-4831
出自	-4832
()、	-4833
释放	-4834
马斯	-4835
(;),	-4836
他與	-4837
如同	-4838
死後	-4839
4.	-4840
標誌	-4841
縣的	-4842
「」	-4843
下方	-4844
時段	-4845
穿越	-4846
离子	-4847
1930	-4848
普拉	-4849
丰富	-4850
女儿	-4851
始人	-4852
容量	-4853
氣壓	-4854
▁其	-4855
主张	-4856
王室	-4857
的日	-4858
谈判	-4859
上游	-4860
per	-4861
太原	-4862
任天堂	-4863
第十三	-4864
学科	-4865
緊急	-4866
加斯	-4867
Un	-4868
DVD	-4869
成人	-4870
十一年	-4871
国家的	-4872
組成的	-4873
1942	-4874
耶夫	-4875
▁)	-4876
天体	-4877
启用	-4878
更為	-4879
杀死	-4880
1973	-4881
▁布	-4882
哈里	-4883
检察	-4884
形态	-4885
伍德	-4886
分之	-4887
褐色	-4888
货运	-4889
扩展	-4890
秩序	-4891
藉由	-4892
哈尔滨	-4893
Google	-4894
▁埃	-4895
但不	-4896
举行的	-4897
部部长	-4898
及後	-4899
ohn	-4900
内战	-4901
豐富	-4902
-18	-4903
其中一個	-4904
排列	-4905
推行	-4906
星的	-4907
ram	-4908
荣誉	-4909
追求	-4910
出土	-4911
尺寸	-4912
登陆	-4913
送到	-4914
▁一	-4915
出场	-4916
彰化	-4917
菲律宾	-4918
幾個	-4919
-15	-4920
年成立	-4921
形成的	-4922
立方米	-4923
以為	-4924
传说	-4925
ier	-4926
▁雖然	-4927
受歡迎	-4928
做為	-4929
山区	-4930
候选人	-4931
上方	-4932
危机	-4933
好友	-4934
日晚	-4935
文獻	-4936
港鐵	-4937
的阿	-4938
推动	-4939
经验	-4940
che	-4941
及其他	-4942
垂直	-4943
现实	-4944
十三年	-4945
特别是	-4946
▁科	-4947
牵引	-4948
黑暗	-4949
04	-4950
有可能	-4951
首任	-4952
办事处	-4953
當地的	-4954
广告	-4955
可見	-4956
天津市	-4957
情况下	-4958
改名為	-4959
俄国	-4960
该党	-4961
名人	-4962
作曲家	-4963
全世界	-4964
除此之外	-4965
推进	-4966
洛特	-4967
第三次	-4968
目前尚未由人工引种栽培	-4969
县的	-4970
大字	-4971
吉他	-4972
▁15	-4973
兵力	-4974
覆蓋	-4975
rom	-4976
慕尼	-4977
的公	-4978
莎白	-4979
兹省	-4980
榮譽	-4981
十二月	-4982
带有	-4983
江戶	-4984
突厥	-4985
两侧	-4986
經由	-4987
亮相	-4988
呼籲	-4989
Play	-4990
升级	-4991
空氣	-4992
充分	-4993
回答	-4994
▁Ar	-4995
5.	-4996
▁北	-4997
泽尔省	-4998
在前	-4999
教學	-5000
斗争	-5001
水量	-5002
ear	-5003
大眾	-5004
防御	-5005
。2023	-5006
晉級	-5007
受到了	-5008
众多	-5009
外界	-5010
挑战	-5011
期刊	-5012
瓦尔	-5013
雕塑	-5014
毕业后	-5015
博士学位	-5016
高架	-5017
存在的	-5018
1956	-5019
1958	-5020
▁當	-5021
傑克	-5022
關鍵	-5023
▁Z	-5024
大批	-5025
带来	-5026
按察	-5027
内阁	-5028
巴勒斯坦	-5029
iss	-5030
、1	-5031
效力於	-5032
Th	-5033
洛斯	-5034
監督	-5035
讲述	-5036
这样的	-5037
對應	-5038
市鎮	-5039
环形	-5040
红军	-5041
中以	-5042
福音	-5043
但其	-5044
建築物	-5045
洛杉磯	-5046
的設計	-5047
是中华人民共和国	-5048
四世	-5049
三大	-5050
取自	-5051
婦女	-5052
教徒	-5053
哥伦比亚	-5054
审查	-5055
翰林	-5056
的其他	-5057
的模式	-5058
(6	-5059
摩尔	-5060
該庄	-5061
关键	-5062
確保	-5063
立場	-5064
產生的	-5065
民间	-5066
面積和人口	-5067
SM	-5068
联网	-5069
交易所	-5070
OR	-5071
电气	-5072
這項	-5073
出现了	-5074
分别为	-5075
ix	-5076
以往	-5077
慕尼黑	-5078
喜欢	-5079
爾特	-5080
祖先	-5081
東京都	-5082
皆未知	-5083
面積和人口皆未知	-5084
反而	-5085
文献	-5086
生活在	-5087
。2000	-5088
該地的面積和人口皆未知	-5089
哥倫	-5090
一部分	-5091
1943	-5092
%;	-5093
佛罗	-5094
周圍	-5095
論文	-5096
▁Sh	-5097
1966	-5098
分解	-5099
原則	-5100
对手	-5101
親自	-5102
pt	-5103
作業	-5104
气象	-5105
累计	-5106
年他	-5107
哈拉	-5108
宿舍	-5109
注入	-5110
叙利亚	-5111
形成了	-5112
行业	-5113
▁曾祖	-5114
但由于	-5115
通常是	-5116
两国	-5117
加工	-5118
肯定	-5119
史密斯	-5120
年加入	-5121
定位	-5122
客運	-5123
德軍	-5124
手中	-5125
戰車	-5126
长度	-5127
ational	-5128
司马	-5129
签订	-5130
綠色	-5131
人才	-5132
人權	-5133
億元	-5134
一詞	-5135
場景	-5136
布政	-5137
彼此	-5138
線上	-5139
。1950	-5140
优秀	-5141
優秀	-5142
协调	-5143
反抗	-5144
坐落	-5145
山地	-5146
模特	-5147
分別是	-5148
化学式	-5149
子公司	-5150
提供的	-5151
函數	-5152
后期	-5153
太守	-5154
眼睛	-5155
談判	-5156
1967	-5157
空气	-5158
本地區	-5159
又在	-5160
格式	-5161
路线	-5162
nt	-5163
日報	-5164
装饰	-5165
兩年	-5166
原有	-5167
吏部	-5168
鼓勵	-5169
主場	-5170
兩位	-5171
態度	-5172
更为	-5173
沈阳	-5174
采访	-5175
之名	-5176
站是	-5177
克羅	-5178
障礙	-5179
的大型	-5180
加勒	-5181
選出	-5182
也因此	-5183
CP	-5184
相關的	-5185
余人	-5186
引用	-5187
緬甸	-5188
穆罕默德	-5189
驅逐	-5190
大理	-5191
白人	-5192
公里的	-5193
的發展	-5194
三次	-5195
並無	-5196
勋章	-5197
6.	-5198
告訴	-5199
正是	-5200
海峽	-5201
ost	-5202
3000	-5203
縣的一個非建制地區	-5204
):	-5205
电话	-5206
信任	-5207
幕府	-5208
测量	-5209
温度	-5210
神經	-5211
移交	-5212
都不	-5213
愛情	-5214
维护	-5215
先前	-5216
片段	-5217
边境	-5218
宣言	-5219
往返	-5220
示威者	-5221
就任	-5222
新界	-5223
▁中国	-5224
克斯坦	-5225
的历史	-5226
她曾	-5227
排放	-5228
時候	-5229
殺害	-5230
驾驶	-5231
對外	-5232
麦克	-5233
,10	-5234
十大	-5235
在南	-5236
复兴	-5237
老師	-5238
花园	-5239
分离	-5240
ish	-5241
的大部分	-5242
云南省	-5243
,2011	-5244
(,;)	-5245
」;	-5246
免疫	-5247
任中共	-5248
中原	-5249
巴尔	-5250
王位	-5251
age	-5252
并非	-5253
大師	-5254
學士	-5255
春秋	-5256
")。	-5257
高雄市	-5258
情报	-5259
註冊	-5260
OM	-5261
祭祀	-5262
Mar	-5263
特別是	-5264
的身份	-5265
投手	-5266
一条	-5267
公社	-5268
轉換	-5269
。1949	-5270
以其	-5271
系統的	-5272
專家	-5273
。2002	-5274
▁林	-5275
乘坐	-5276
四大	-5277
困难	-5278
戰略	-5279
米至	-5280
遺產	-5281
長子	-5282
任职	-5283
沙田	-5284
的第三	-5285
所謂	-5286
身亡	-5287
防守	-5288
哈利	-5289
年龄	-5290
达尔	-5291
機的	-5292
每次	-5293
编码	-5294
裝備	-5295
新型	-5296
競選	-5297
議題	-5298
成功的	-5299
犹太人	-5300
优势	-5301
成果	-5302
航空公司	-5303
生態	-5304
製作人	-5305
地质	-5306
校舍	-5307
眾多	-5308
研發	-5309
And	-5310
DNA	-5311
ile	-5312
副使	-5313
成分	-5314
戰術	-5315
維多	-5316
1971	-5317
CC	-5318
ae	-5319
之地	-5320
語的	-5321
完整的	-5322
十一月	-5323
一級	-5324
合理	-5325
轰炸	-5326
系统的	-5327
IG	-5328
人次	-5329
真实	-5330
大規模	-5331
的一次	-5332
他与	-5333
機車	-5334
(11	-5335
州負責管轄	-5336
一份	-5337
新人	-5338
此地	-5339
克萊	-5340
坚持	-5341
朗德	-5342
游击	-5343
不受	-5344
危險	-5345
神秘	-5346
納粹	-5347
夏威	-5348
會長	-5349
-12	-5350
ons	-5351
其他的	-5352
政治家	-5353
普鲁	-5354
自主	-5355
之上	-5356
田径	-5357
02	-5358
县城	-5359
茨基	-5360
进士	-5361
遊行	-5362
附加	-5363
私立	-5364
資產	-5365
。2001	-5366
考試	-5367
克利	-5368
男孩	-5369
▁陳	-5370
act	-5371
》(),	-5372
第二次世界大戰	-5373
則有	-5374
前者	-5375
野生	-5376
会的	-5377
拿破	-5378
十四年	-5379
陕西省	-5380
作的	-5381
丁堡	-5382
出賽	-5383
栖息	-5384
檢查	-5385
耶稣	-5386
薩克	-5387
130	-5388
向西	-5389
戰士	-5390
監察	-5391
得票	-5392
綜藝	-5393
造型	-5394
ung	-5395
1952	-5396
入球	-5397
号的	-5398
吉尔	-5399
簽訂	-5400
院長	-5401
時期的	-5402
薩斯	-5403
截止	-5404
登記	-5405
体育场	-5406
和他的	-5407
國家的	-5408
时期的	-5409
出發	-5410
歌詞	-5411
無論	-5412
稱呼	-5413
良好	-5414
学士	-5415
Cl	-5416
年末	-5417
集的	-5418
初步	-5419
在上海	-5420
基础上	-5421
旗下的	-5422
马克思	-5423
二次	-5424
多種	-5425
称作	-5426
rit	-5427
哈爾	-5428
ork	-5429
夏威夷	-5430
符號	-5431
达成	-5432
坐标为	-5433
播出的	-5434
波羅	-5435
選秀	-5436
com	-5437
以外的	-5438
"(	-5439
報道	-5440
收录	-5441
罗讷	-5442
台北市	-5443
▁2025	-5444
ax	-5445
尊重	-5446
的正	-5447
ros	-5448
_2	-5449
民政	-5450
文艺	-5451
現實	-5452
能在	-5453
在第	-5454
1969	-5455
哲學	-5456
工商	-5457
幻想	-5458
昆明	-5459
tem	-5460
。16	-5461
的道路	-5462
差异	-5463
德華	-5464
性质	-5465
費用	-5466
▁th	-5467
部作品	-5468
其后	-5469
打击	-5470
马里	-5471
黃色	-5472
格拉斯	-5473
定为	-5474
是最	-5475
生效	-5476
病逝	-5477
高達	-5478
9,	-5479
1977	-5480
▁2001	-5481
兴趣	-5482
台中	-5483
回合	-5484
姊妹	-5485
遺址	-5486
03	-5487
。2	-5488
吾尔	-5489
拉的	-5490
常委会	-5491
面积为	-5492
TA	-5493
上面	-5494
天使	-5495
暫時	-5496
著的	-5497
的意思	-5498
刑部	-5499
小姐	-5500
工部	-5501
懷疑	-5502
ux	-5503
年才	-5504
最高法院	-5505
▁與	-5506
兵部	-5507
lat	-5508
住房	-5509
步槍	-5510
是因為	-5511
其子	-5512
开工	-5513
的河流	-5514
入了	-5515
時區	-5516
绝对	-5517
至此	-5518
HR	-5519
也会	-5520
她們	-5521
地点	-5522
德华	-5523
運用	-5524
参谋长	-5525
可能性	-5526
的问题	-5527
南斯拉夫	-5528
下游	-5529
維奇	-5530
-17	-5531
ood	-5532
年冬季	-5533
停車	-5534
多元	-5535
西班牙语	-5536
框架	-5537
格尔	-5538
一旦	-5539
即可	-5540
的全	-5541
不知	-5542
屯門	-5543
著有	-5544
入圍	-5545
區內	-5546
粉絲	-5547
道夫	-5548
交換	-5549
奧斯	-5550
大选	-5551
微博	-5552
長達	-5553
人死亡	-5554
▁2002	-5555
尝试	-5556
波罗	-5557
ction	-5558
首批	-5559
ern	-5560
包含了	-5561
名叫	-5562
方程式	-5563
▁与	-5564
升級	-5565
增長	-5566
晚期	-5567
消费	-5568
old	-5569
,2009	-5570
克罗	-5571
原型	-5572
回应	-5573
土壤	-5574
大同	-5575
政治部	-5576
;&	-5577
事情	-5578
勒斯	-5579
會被	-5580
北平	-5581
視覺	-5582
▁Un	-5583
的前身	-5584
艺术家	-5585
端的	-5586
科學家	-5587
land	-5588
中間	-5589
但仍	-5590
台南	-5591
定為	-5592
實行	-5593
群众	-5594
就可以	-5595
屏東	-5596
座堂	-5597
日發行	-5598
enter	-5599
大正	-5600
百年	-5601
给予	-5602
同月	-5603
就像	-5604
特性	-5605
▁Sp	-5606
维吾尔	-5607
架構	-5608
軍官	-5609
科学家	-5610
修复	-5611
济南	-5612
国民政府	-5613
兩國	-5614
右翼	-5615
,12	-5616
▁前	-5617
公署	-5618
均有	-5619
裡的	-5620
贊助	-5621
苏格兰	-5622
IA	-5623
促使	-5624
馬爾	-5625
最后一	-5626
;/	-5627
MP	-5628
▁第	-5629
势力	-5630
拜占	-5631
周期	-5632
鳥類	-5633
互联网	-5634
增強	-5635
族人	-5636
草案	-5637
系列的	-5638
法语	-5639
金曲	-5640
騎兵	-5641
▁為	-5642
相应	-5643
饰演	-5644
ime	-5645
向量	-5646
天府	-5647
说明	-5648
强度	-5649
克雷	-5650
勞動	-5651
手機	-5652
副部长	-5653
製作的	-5654
機制	-5655
球场	-5656
科尔	-5657
黑人	-5658
二级	-5659
建有	-5660
百萬	-5661
苏丹	-5662
ool	-5663
世界杯	-5664
任意	-5665
等级	-5666
各个	-5667
开设	-5668
机制	-5669
▁日	-5670
十六年	-5671
真正的	-5672
生長	-5673
Te	-5674
会长	-5675
告诉	-5676
摧毀	-5677
cl	-5678
布莱	-5679
ory	-5680
巡回	-5681
的家	-5682
都可以	-5683
省级	-5684
之前的	-5685
年美国	-5686
降雨量	-5687
▁米	-5688
审判	-5689
手机	-5690
附属	-5691
该市	-5692
当选为	-5693
培养	-5694
阳县	-5695
第一百	-5696
休息	-5697
總裁	-5698
螺旋	-5699
叫做	-5700
直径	-5701
蒸汽	-5702
的面積為	-5703
研究中心	-5704
夏天	-5705
。1990	-5706
▁r	-5707
公立	-5708
粵語	-5709
總會	-5710
面臨	-5711
她是	-5712
时针	-5713
清真	-5714
福特	-5715
約有	-5716
維護	-5717
▁!	-5718
声音	-5719
症狀	-5720
定理	-5721
高校	-5722
Station	-5723
瓦爾	-5724
成立后	-5725
最初的	-5726
人被	-5727
現時由	-5728
女神	-5729
得分	-5730
感情	-5731
為其	-5732
短暫	-5733
种子	-5734
,2007	-5735
DS	-5736
包括了	-5737
原定	-5738
探險	-5739
。1999	-5740
智利	-5741
支持者	-5742
審查	-5743
的土地	-5744
技巧	-5745
货币	-5746
版本的	-5747
GB	-5748
是大	-5749
清华	-5750
这座	-5751
十五年	-5752
最重要的	-5753
搖滾	-5754
缩写	-5755
舉辦的	-5756
啟動	-5757
後於	-5758
的消息	-5759
1959	-5760
为人	-5761
斯大	-5762
政府在	-5763
族自治	-5764
平安	-5765
職位	-5766
1962	-5767
▁1949	-5768
▁|	-5769
口岸	-5770
城际	-5771
本次	-5772
看法	-5773
高地	-5774
二氧化	-5775
充滿	-5776
放射	-5777
是為	-5778
1965	-5779
国际机场	-5780
拉德	-5781
气旋	-5782
尼古拉	-5783
(3	-5784
電車	-5785
的存在	-5786
文化大革命	-5787
供奉	-5788
布萊	-5789
性質	-5790
授权	-5791
召集	-5792
阿基	-5793
預算	-5794
一路	-5795
发出	-5796
该国	-5797
区间	-5798
就被	-5799
青春	-5800
即將	-5801
是有	-5802
人大代表	-5803
东侧	-5804
亞軍	-5805
東海	-5806
警員	-5807
-16	-5808
普林	-5809
演藝	-5810
的非	-5811
西侧	-5812
安东	-5813
委會	-5814
ann	-5815
但是在	-5816
尋求	-5817
斯顿	-5818
苏维埃	-5819
ox	-5820
党的	-5821
制片	-5822
大學的	-5823
初年	-5824
带领	-5825
校園	-5826
模仿	-5827
产生的	-5828
姓氏	-5829
ous	-5830
維多利亞	-5831
伯格	-5832
循環	-5833
打造	-5834
状况	-5835
监狱	-5836
基督徒	-5837
整理	-5838
证券	-5839
龍的	-5840
第十二	-5841
公寓	-5842
称号	-5843
這樣的	-5844
塞尔维亚	-5845
復興	-5846
放送	-5847
流亡	-5848
雕像	-5849
、4	-5850
本名	-5851
死后	-5852
可是	-5853
對其	-5854
慶祝	-5855
次日	-5856
每一	-5857
澎湖	-5858
行駛	-5859
連結	-5860
▁從	-5861
差距	-5862
▁日本	-5863
原因是	-5864
足球俱乐部	-5865
-8	-5866
包圍	-5867
垃圾	-5868
的要求	-5869
南昌	-5870
各國	-5871
推出了	-5872
跟隨	-5873
夫斯基	-5874
山區	-5875
檔案	-5876
的老	-5877
拜占庭	-5878
人民法院	-5879
侵犯	-5880
大队	-5881
总额	-5882
新城	-5883
言論	-5884
委员会委员	-5885
交换	-5886
書籍	-5887
波尔	-5888
中国的	-5889
。1998	-5890
宣稱	-5891
核酸	-5892
認同	-5893
不佳	-5894
雅典	-5895
ames	-5896
保证	-5897
種子	-5898
站至	-5899
共产主义	-5900
罗马尼亚	-5901
手術	-5902
紧急	-5903
▁k	-5904
人是	-5905
军团	-5906
培训	-5907
授權	-5908
明確	-5909
上半	-5910
原则	-5911
场所	-5912
覺得	-5913
EP	-5914
▁海	-5915
水深	-5916
真人	-5917
科幻	-5918
ium	-5919
ove	-5920
公開賽	-5921
洛杉矶	-5922
▁Sch	-5923
分享	-5924
慕容	-5925
放置	-5926
140	-5927
的名稱	-5928
菲利普	-5929
教练	-5930
原理	-5931
各地的	-5932
江西省	-5933
年與	-5934
氣體	-5935
船隻	-5936
arl	-5937
交付	-5938
乡镇	-5939
封面	-5940
工会	-5941
國防部	-5942
中國國民黨	-5943
展現	-5944
巴斯	-5945
形狀	-5946
曲目	-5947
符号	-5948
日開始	-5949
▁、	-5950
▁Th	-5951
的一条	-5952
扩建	-5953
村民	-5954
枢纽	-5955
為食	-5956
yle	-5957
已於	-5958
常住	-5959
發揮	-5960
競賽	-5961
辦事	-5962
很大的	-5963
(2009	-5964
停留	-5965
第二次世界大战	-5966
」)	-5967
他們在	-5968
。1997	-5969
为一	-5970
四人	-5971
英軍	-5972
指的是	-5973
顺时针	-5974
1957	-5975
中等	-5976
或其他	-5977
九州	-5978
兩岸	-5979
堅持	-5980
改良	-5981
羅馬尼亞	-5982
予以	-5983
大连	-5984
▁其中	-5985
是位於烏克蘭	-5986
董事長	-5987
會上	-5988
广州市	-5989
。1980	-5990
修復	-5991
哺乳	-5992
士坦	-5993
存的	-5994
暫停	-5995
0.5	-5996
col	-5997
人大常委会	-5998
火炮	-5999
頒發	-6000
摧毁	-6001
更改	-6002
威尼斯	-6003
,17	-6004
该物种	-6005
南極條約	-6006
刊登	-6007
编剧	-6008
國務	-6009
地域	-6010
寻找	-6011
訊息	-6012
供应	-6013
考试	-6014
苏州	-6015
这场	-6016
铁路局	-6017
該片	-6018
意见	-6019
建立的	-6020
1500	-6021
起了	-6022
冒險	-6023
人生	-6024
名義	-6025
CA	-6026
IST	-6027
ica	-6028
共计	-6029
富士	-6030
教科	-6031
斯里	-6032
的光	-6033
終點	-6034
芬蘭	-6035
在台灣	-6036
来越	-6037
级别	-6038
接受了	-6039
兵团	-6040
军委	-6041
换乘	-6042
重的	-6043
▁美國	-6044
▁e	-6045
ence	-6046
)(	-6047
将在	-6048
航行	-6049
若干	-6050
受害者	-6051
意味着	-6052
哥倫比亞	-6053
下属	-6054
宜蘭	-6055
故障	-6056
蘋果	-6057
对抗	-6058
杰克	-6059
ath	-6060
元朝	-6061
單一	-6062
难以	-6063
大橋	-6064
委託	-6065
平定	-6066
英寸	-6067
观测	-6068
跑道	-6069
是一家	-6070
罗伯特	-6071
马恩省	-6072
依靠	-6073
採訪	-6074
联络	-6075
世界的	-6076
便是	-6077
卫视	-6078
晋升	-6079
的話	-6080
南極條約體系	-6081
。1	-6082
傾向	-6083
道歉	-6084
边缘	-6085
ical	-6086
又被	-6087
在于	-6088
規範	-6089
資助	-6090
wit	-6091
1961	-6092
(8	-6093
IM	-6094
君士坦	-6095
越来越	-6096
。1945	-6097
南極條約體系管理	-6098
出发	-6099
甲基	-6100
稱作	-6101
组织的	-6102
(190	-6103
亚历山大	-6104
届全国人民代表大会	-6105
se	-6106
两名	-6107
古老的	-6108
尼泊	-6109
後方	-6110
決議	-6111
经典	-6112
一職	-6113
承諾	-6114
无线	-6115
沃尔	-6116
《》,	-6117
在中國	-6118
不满	-6119
為此	-6120
足協	-6121
沙漠	-6122
香港的	-6123
平行	-6124
所谓	-6125
號的	-6126
是印度	-6127
1963	-6128
文本	-6129
球迷	-6130
1,000	-6131
一場	-6132
普及	-6133
東亞	-6134
配備	-6135
任內	-6136
已在	-6137
鱼雷	-6138
同時也	-6139
來往	-6140
排除	-6141
議席	-6142
选为	-6143
病毒病	-6144
1939	-6145
-7	-6146
图像	-6147
大帝	-6148
对其	-6149
种植	-6150
高峰	-6151
世界盃	-6152
位於該國西部	-6153
危险	-6154
品質	-6155
哈德	-6156
有利	-6157
站厅	-6158
与其他	-6159
實驗室	-6160
營業	-6161
藍色	-6162
領地	-6163
的一位	-6164
作物	-6165
执导	-6166
邊緣	-6167
院校	-6168
他以	-6169
男主角	-6170
。189	-6171
Sc	-6172
戰鬥機	-6173
立法院	-6174
报纸	-6175
觀看	-6176
張單曲	-6177
完美	-6178
性别	-6179
身為	-6180
”,“	-6181
的座標為	-6182
▁上	-6183
免费	-6184
前方	-6185
有了	-6186
的可	-6187
事務所	-6188
,2005	-6189
丁目	-6190
为此	-6191
大衛	-6192
大埔	-6193
大戰	-6194
平成	-6195
政协委员	-6196
一至	-6197
影展	-6198
鐵路車站	-6199
PlayStation	-6200
併入	-6201
內地	-6202
志愿	-6203
技能	-6204
足夠	-6205
EST	-6206
▁艾	-6207
斯省	-6208
升格為	-6209
(2	-6210
感覺	-6211
經紀	-6212
考入	-6213
政治局	-6214
追溯到	-6215
FC	-6216
三名	-6217
并被	-6218
石坑	-6219
长春	-6220
周恩	-6221
增强	-6222
海水	-6223
的后	-6224
的金	-6225
頭部	-6226
失去了	-6227
山脈的一部分	-6228
当天	-6229
▁以	-6230
共享	-6231
徒刑	-6232
檢測	-6233
Pro	-6234
EM	-6235
职位	-6236
英超	-6237
诗人	-6238
一共	-6239
擴展	-6240
的北	-6241
現時由南極條約體系管理	-6242
BD	-6243
下旬	-6244
亲自	-6245
清水	-6246
里亞	-6247
ley	-6248
延伸至	-6249
三位	-6250
參謀	-6251
售票	-6252
处长	-6253
東尼	-6254
試驗	-6255
階級	-6256
錄影帶	-6257
1955	-6258
卡特	-6259
就会	-6260
展览	-6261
的人口	-6262
凭借	-6263
在位	-6264
book	-6265
下來	-6266
是個	-6267
衛隊	-6268
颱風警報	-6269
射擊	-6270
自杀	-6271
里达	-6272
长约	-6273
來越	-6274
列出	-6275
回家	-6276
yn	-6277
上任	-6278
將在	-6279
弟子	-6280
的美	-6281
评为	-6282
900	-6283
监察	-6284
零售	-6285
出生在	-6286
1936	-6287
1954	-6288
中所	-6289
元音	-6290
標本	-6291
大部份	-6292
不但	-6293
冠状	-6294
回国	-6295
畫面	-6296
足球隊	-6297
5000	-6298
海底	-6299
無線	-6300
盆地	-6301
邊境	-6302
國家隊	-6303
工艺	-6304
意為	-6305
也能	-6306
千人	-6307
搭配	-6308
明代	-6309
电脑	-6310
職員	-6311
司令员	-6312
僅有	-6313
满洲	-6314
等的	-6315
改名为	-6316
美國海軍	-6317
時報	-6318
-14	-6319
ection	-6320
深刻	-6321
縮寫	-6322
之處	-6323
二战	-6324
沿用	-6325
典型的	-6326
巡洋舰	-6327
氣象局	-6328
颜色	-6329
Ste	-6330
二十年	-6331
日治時期	-6332
同志	-6333
塔尔	-6334
确保	-6335
节度使	-6336
发挥	-6337
那里	-6338
常見的	-6339
提案	-6340
最有	-6341
正德	-6342
SS	-6343
分離	-6344
是位于	-6345
有許多	-6346
(4	-6347
人群	-6348
低于	-6349
波音	-6350
相較	-6351
達爾	-6352
顺时针与	-6353
友好	-6354
活性	-6355
該公司	-6356
round	-6357
uk	-6358
世的	-6359
侵略	-6360
改进	-6361
明尼	-6362
浪漫	-6363
血液	-6364
週期	-6365
经济学	-6366
國軍	-6367
率先	-6368
珊瑚	-6369
國語	-6370
崇拜	-6371
牛津	-6372
普鲁士	-6373
五個	-6374
城墙	-6375
帶著	-6376
月任	-6377
者和	-6378
相关的	-6379
厦门	-6380
檢察	-6381
真的	-6382
預測	-6383
ail	-6384
方向的	-6385
日舉行	-6386
國道	-6387
草原	-6388
跟随	-6389
进步	-6390
更大的	-6391
立法委員	-6392
界的	-6393
類的	-6394
黄金	-6395
越來越	-6396
。&	-6397
国军	-6398
場地	-6399
州长	-6400
点的	-6401
动作	-6402
足球运动员	-6403
加入中国共产党	-6404
co	-6405
游客	-6406
的特有	-6407
CH	-6408
安置	-6409
族的	-6410
。2024	-6411
变成	-6412
夺得	-6413
低氣壓	-6414
單元	-6415
▁1990	-6416
利安	-6417
本屆	-6418
特區	-6419
提议	-6420
水利	-6421
卡罗	-6422
障碍	-6423
清真寺	-6424
一半	-6425
。1996	-6426
变为	-6427
屠杀	-6428
炸彈	-6429
當日	-6430
錄製	-6431
基本上	-6432
情況下	-6433
岛屿	-6434
期望	-6435
抗日战争	-6436
事中	-6437
擔心	-6438
花蓮	-6439
轉乘	-6440
CN	-6441
德爾	-6442
诺曼	-6443
师范大学	-6444
亲王	-6445
赤緯	-6446
領先	-6447
爱德华	-6448
國民政府	-6449
場所	-6450
好評	-6451
姐妹	-6452
日益	-6453
辞职	-6454
在那里	-6455
的儿子	-6456
ve	-6457
介石	-6458
判決	-6459
面对	-6460
共和党	-6461
年代末	-6462
美國人	-6463
剧情	-6464
拉特	-6465
索尼	-6466
上校	-6467
集体	-6468
十七年	-6469
幸福	-6470
通讯	-6471
面體	-6472
年秋	-6473
照顧	-6474
片中	-6475
維斯	-6476
own	-6477
但也	-6478
協調	-6479
各個	-6480
承担	-6481
诺夫	-6482
参与了	-6483
參加了	-6484
大使馆	-6485
的设计	-6486
决议	-6487
射击	-6488
練習	-6489
-11	-6490
世纪初	-6491
。1992	-6492
会员	-6493
月份	-6494
雙打	-6495
面上	-6496
二戰	-6497
各大	-6498
更高	-6499
引起了	-6500
五个	-6501
州立	-6502
ris	-6503
和新	-6504
局部	-6505
混凝	-6506
獎金	-6507
聯絡	-6508
▁白	-6509
杀害	-6510
电动	-6511
。1993	-6512
南下	-6513
器官	-6514
旧址	-6515
财产	-6516
年香港	-6517
”;	-6518
att	-6519
滿足	-6520
多夫	-6521
百科	-6522
茨克	-6523
典型	-6524
導彈	-6525
与其	-6526
同學	-6527
次子	-6528
流浪	-6529
等級	-6530
總監	-6531
輸出	-6532
近平	-6533
上一	-6534
執政	-6535
神父	-6536
車隊	-6537
轉向	-6538
雍正	-6539
发生在	-6540
升為	-6541
的先	-6542
货物	-6543
外部	-6544
客家	-6545
欧盟	-6546
规范	-6547
城市的	-6548
。1995	-6549
主体	-6550
山口	-6551
赤經	-6552
造船	-6553
逻辑	-6554
其中有	-6555
委常委	-6556
於同年	-6557
省道台	-6558
新冠	-6559
围绕太阳	-6560
行政長官	-6561
後續	-6562
德勒	-6563
的两	-6564
臀鰭	-6565
华人	-6566
河道全長	-6567
电力机车	-6568
视星等为	-6569
主動	-6570
地亚	-6571
客户	-6572
房子	-6573
竞选	-6574
▁1999	-6575
保险	-6576
奖项	-6577
不可能	-6578
即是	-6579
戰場	-6580
方形	-6581
Ad	-6582
DA	-6583
之女	-6584
文的	-6585
首映	-6586
混凝土	-6587
围绕太阳公	-6588
也称	-6589
同治	-6590
使他	-6591
摄影	-6592
政委	-6593
火力	-6594
基金会	-6595
▁189	-6596
是一颗围绕太阳公	-6597
af	-6598
享有	-6599
暴露	-6600
是一颗围绕太阳公转的小行星	-6601
不在	-6602
乐团	-6603
漢字	-6604
特尔	-6605
镇压	-6606
法兰西	-6607
發現了	-6608
指揮官	-6609
第一批	-6610
之意	-6611
輻射	-6612
德川	-6613
滑雪	-6614
為由	-6615
認證	-6616
比利時	-6617
的歷史	-6618
▁哈	-6619
不利	-6620
创新	-6621
羅德	-6622
資本	-6623
标本	-6624
正確	-6625
波爾	-6626
随即	-6627
主權	-6628
和阿	-6629
许可	-6630
勃艮	-6631
后被	-6632
總站	-6633
车队	-6634
願意	-6635
BM	-6636
座位	-6637
遵守	-6638
是台灣	-6639
區負責管轄	-6640
将领	-6641
驱动	-6642
ara	-6643
分散	-6644
的南	-6645
的法	-6646
推薦	-6647
監製	-6648
ck	-6649
一角	-6650
日語	-6651
立刻	-6652
輸入	-6653
始建于	-6654
是一款	-6655
的使用	-6656
辭職	-6657
」()	-6658
年代的	-6659
此天体	-6660
唱片公司	-6661
Qu	-6662
一词	-6663
事後	-6664
元首	-6665
原來	-6666
治理	-6667
还在	-6668
提琴	-6669
站在	-6670
米亞	-6671
送往	-6672
101	-6673
的中心	-6674
1953	-6675
描繪	-6676
里昂	-6677
iel	-6678
年毕业于	-6679
一方	-6680
從此	-6681
手槍	-6682
模拟	-6683
事件的	-6684
傷害	-6685
年因	-6686
案的	-6687
溶液	-6688
累積	-6689
聞名	-6690
enn	-6691
oft	-6692
▁on	-6693
古屋	-6694
守護	-6695
普罗	-6696
第一部	-6697
集中在	-6698
万历	-6699
人文	-6700
恩斯	-6701
桥梁	-6702
收費	-6703
预计	-6704
▁14	-6705
奥斯曼	-6706
员工	-6707
维克	-6708
罪名	-6709
工作者	-6710
轨道交通	-6711
曾有	-6712
次於	-6713
的心	-6714
▁al	-6715
的速度	-6716
藝術家	-6717
客车	-6718
展出	-6719
废除	-6720
Net	-6721
▁美国	-6722
此同时	-6723
國際機場	-6724
城县	-6725
合并为	-6726
東日本	-6727
的官方	-6728
。1994	-6729
巴塞	-6730
里程	-6731
发明	-6732
地址	-6733
戰隊	-6734
肌肉	-6735
,11	-6736
交汇	-6737
回忆	-6738
諮詢	-6739
写道	-6740
工程師	-6741
(7	-6742
改称	-6743
的兩	-6744
代码为	-6745
搬到	-6746
攻入	-6747
發明	-6748
ode	-6749
可以用	-6750
省政府	-6751
▁据	-6752
不列	-6753
勞工	-6754
太郎	-6755
軟條	-6756
ase	-6757
足够	-6758
依赖	-6759
布列	-6760
敵人	-6761
賽車	-6762
运用	-6763
▁张	-6764
呼吁	-6765
每周	-6766
車廂	-6767
加勒比	-6768
可以通过	-6769
▁1998	-6770
則由	-6771
圓形	-6772
定了	-6773
州和	-6774
引進	-6775
從未	-6776
探测	-6777
改任	-6778
神話	-6779
耳曼	-6780
颶風	-6781
SAO	-6782
勃艮第	-6783
发生了	-6784
1937	-6785
催化	-6786
单独	-6787
教的	-6788
愛德華	-6789
占据	-6790
场景	-6791
大選	-6792
迁至	-6793
配角	-6794
重視	-6795
哈佛	-6796
喜剧	-6797
開辦	-6798
隔年	-6799
隶属	-6800
面临	-6801
新一	-6802
系的	-6803
其中的	-6804
現在的	-6805
的女兒	-6806
orld	-6807
EL	-6808
兴建	-6809
多尔	-6810
形態	-6811
态度	-6812
癌症	-6813
耶穌	-6814
斯頓	-6815
新区	-6816
汉语	-6817
世代	-6818
山县	-6819
森堡	-6820
-13	-6821
▁Te	-6822
主義者	-6823
IR	-6824
招募	-6825
纳德	-6826
切爾	-6827
。1991	-6828
主人	-6829
主導	-6830
彻底	-6831
推荐	-6832
文革	-6833
種植	-6834
认识	-6835
首个	-6836
-20	-6837
约瑟夫	-6838
、5	-6839
捷運	-6840
直隸	-6841
血管	-6842
主义的	-6843
聯合颱風警報	-6844
室內	-6845
扩张	-6846
撞击	-6847
格鲁	-6848
滅絕	-6849
积分	-6850
,2012	-6851
HD	-6852
病人	-6853
立委	-6854
部和	-6855
延續	-6856
裝飾	-6857
短篇	-6858
交流道	-6859
下来	-6860
区别	-6861
文化的	-6862
环形山	-6863
聯合颱風警報中心	-6864
年期間	-6865
最近的	-6866
BO	-6867
发售	-6868
亦在	-6869
佛羅	-6870
循环	-6871
路德	-6872
acebook	-6873
北魏	-6874
地图	-6875
季後	-6876
密的	-6877
級別	-6878
辖区	-6879
銀緯	-6880
北京大学	-6881
。1988	-6882
中立	-6883
其父	-6884
就能	-6885
幹線	-6886
拯救	-6887
銀經	-6888
的功能	-6889
陨石坑	-6890
印度尼西亚	-6891
提議	-6892
有助	-6893
位于銀經	-6894
坐标为赤經	-6895
1900.0	-6896
ron	-6897
命名的	-6898
▁張	-6899
企圖	-6900
回憶	-6901
播映	-6902
良好的	-6903
建筑面积	-6904
ivers	-6905
出色	-6906
产生了	-6907
次列车	-6908
地带	-6909
无论	-6910
灰色	-6911
运河	-6912
文帝	-6913
望遠	-6914
變為	-6915
公平	-6916
将会	-6917
恐龍	-6918
擴張	-6919
敏感	-6920
美军	-6921
脂鯉	-6922
ree	-6923
纵队	-6924
股票	-6925
卢瓦尔	-6926
1935	-6927
ance	-6928
绿色	-6929
是俄羅斯	-6930
吉斯	-6931
心的	-6932
止於	-6933
王后	-6934
裁定	-6935
跨越	-6936
来源于	-6937
貨物	-6938
分别是	-6939
自行车	-6940
赢得了	-6941
占总人口	-6942
历史学家	-6943
书籍	-6944
赫尔	-6945
新北市	-6946
改由	-6947
负责人	-6948
其所	-6949
只在	-6950
奴隶	-6951
总局	-6952
水面	-6953
重修	-6954
特定的	-6955
縣知縣	-6956
之為	-6957
战胜	-6958
支部	-6959
用地	-6960
▁1980	-6961
▁当	-6962
塞拜	-6963
巴布	-6964
醫師	-6965
阿姆	-6966
設計的	-6967
台幣	-6968
间的	-6969
▁Al	-6970
他们在	-6971
一千	-6972
人為	-6973
人都	-6974
延安	-6975
監獄	-6976
科研	-6977
7.	-6978
_3	-6979
安打	-6980
生理	-6981
被任命为	-6982
叛乱	-6983
外圍	-6984
彗星	-6985
情感	-6986
財產	-6987
单元	-6988
金斯	-6989
闻名	-6990
東南亞	-6991
字符	-6992
涵蓋	-6993
Lin	-6994
ude	-6995
的时间	-6996
不多	-6997
太宗	-6998
屬的	-6999
強度	-7000
校园	-7001
水上	-7002
水的	-7003
開啟	-7004
開通	-7005
一生	-7006
不如	-7007
不敌	-7008
剧本	-7009
和中	-7010
片的	-7011
斯大林	-7012
元朗	-7013
冠狀	-7014
路的	-7015
透明	-7016
美國的	-7017
效应	-7018
為期	-7019
秘魯	-7020
罗德	-7021
级联赛	-7022
足球聯賽	-7023
在这	-7024
地質	-7025
存储	-7026
島上	-7027
年獲	-7028
路军	-7029
這場	-7030
III	-7031
安德烈	-7032
SO	-7033
消耗	-7034
薩爾	-7035
参议院	-7036
新西兰	-7037
最高點	-7038
該村始建於	-7039
sk	-7040
▁奧	-7041
貨幣	-7042
的成员	-7043
第二季	-7044
纳省	-7045
脊椎	-7046
要塞	-7047
翰林院	-7048
人口数量	-7049
▁1945	-7050
修訂	-7051
有意	-7052
村莊	-7053
洪武	-7054
短期	-7055
週年	-7056
颁发	-7057
高山	-7058
眾議院	-7059
體育館	-7060
阿布	-7061
1938	-7062
格斯	-7063
脫離	-7064
製片	-7065
配备	-7066
預告	-7067
的人物	-7068
John	-7069
,2006	-7070
因子	-7071
主要由	-7072
望遠鏡	-7073
重点文物保护单位	-7074
原址	-7075
对阵	-7076
年於	-7077
西蘭	-7078
证实	-7079
赫爾	-7080
的作用	-7081
参数	-7082
庆祝	-7083
效應	-7084
習慣	-7085
足以	-7086
以及在	-7087
年以来	-7088
back	-7089
省負責管轄	-7090
ML	-7091
全年	-7092
制裁	-7093
實力	-7094
水中	-7095
看見	-7096
言论	-7097
賽的	-7098
較低	-7099
辐射	-7100
降落	-7101
名古屋	-7102
外郎	-7103
描绘	-7104
農民	-7105
▁台灣	-7106
被视为	-7107
底層水域	-7108
中将	-7109
告知	-7110
寄生	-7111
石器	-7112
題材	-7113
ru	-7114
电车	-7115
频率	-7116
龙省	-7117
的女性	-7118
容納	-7119
长子	-7120
奧林匹克運動會	-7121
並被	-7122
短暂	-7123
給了	-7124
,16	-7125
一直在	-7126
该公司	-7127
納入	-7128
網上	-7129
大奖	-7130
移至	-7131
五世	-7132
写作	-7133
源於	-7134
蝙蝠	-7135
质疑	-7136
敘利亞	-7137
ISTAT	-7138
依据	-7139
区和	-7140
塔爾	-7141
机的	-7142
繁忙	-7143
EE	-7144
普魯	-7145
面前	-7146
旋律	-7147
移植	-7148
书中	-7149
大氣	-7150
所得	-7151
頻率	-7152
吉林省	-7153
独立的	-7154
辽宁省	-7155
將領	-7156
残疾	-7157
者在	-7158
1951	-7159
佛罗里达	-7160
CR	-7161
劇中	-7162
南宋	-7163
絕對	-7164
落敗	-7165
走廊	-7166
陆续	-7167
托马斯	-7168
而得名	-7169
董事长	-7170
,2013	-7171
克西	-7172
內戰	-7173
团长	-7174
推广	-7175
现有	-7176
蘇丹	-7177
领导的	-7178
不良	-7179
人氣	-7180
聖經	-7181
队长	-7182
illi	-7183
足球運動員	-7184
介入	-7185
他還	-7186
信奉	-7187
和一	-7188
拉多	-7189
互動	-7190
奉命	-7191
馬斯	-7192
AD	-7193
他为	-7194
先进	-7195
画家	-7196
米亚	-7197
res	-7198
1/	-7199
山坡	-7200
在法国	-7201
的一家	-7202
东风	-7203
二层	-7204
人权	-7205
团结	-7206
染色	-7207
。15	-7208
年上映	-7209
形式的	-7210
月中旬	-7211
集团军	-7212
位在	-7213
和西	-7214
研发	-7215
輔助	-7216
创始人	-7217
▁多	-7218
主唱	-7219
前後	-7220
谢尔	-7221
邮政	-7222
加里	-7223
口徑	-7224
干涉	-7225
的那	-7226
真相	-7227
蒙德	-7228
发行的	-7229
亦可	-7230
又有	-7231
戈尔	-7232
攻占	-7233
環球	-7234
限定	-7235
久的	-7236
加尔	-7237
月被	-7238
精英	-7239
十八年	-7240
境外输入	-7241
便利	-7242
时报	-7243
日耳曼	-7244
場的	-7245
美国的	-7246
完善	-7247
詳細	-7248
邊的	-7249
姐姐	-7250
立场	-7251
認可	-7252
倾向	-7253
无人	-7254
维斯	-7255
orn	-7256
SP	-7257
性格	-7258
衣服	-7259
作品的	-7260
▁You	-7261
二甲	-7262
等职	-7263
▁13	-7264
年首次	-7265
發生在	-7266
以東	-7267
密西	-7268
故意	-7269
曹操	-7270
-9	-7271
以东	-7272
司職	-7273
大大	-7274
對話	-7275
形状	-7276
排球	-7277
讓他	-7278
lex	-7279
AV	-7280
BL	-7281
位居	-7282
尼日	-7283
也沒有	-7284
逢星期	-7285
不及	-7286
天氣	-7287
执政	-7288
撰写	-7289
消除	-7290
公共交通	-7291
亚美	-7292
可靠	-7293
鸟类	-7294
全市	-7295
啤酒	-7296
步行	-7297
途經	-7298
马丁	-7299
布政使	-7300
無人機	-7301
號月台	-7302
ress	-7303
了在	-7304
延长	-7305
訴訟	-7306
▁據	-7307
南路	-7308
地处	-7309
并与	-7310
事實上	-7311
年左右	-7312
最好的	-7313
▁1996	-7314
內政	-7315
农场	-7316
动车组	-7317
的不同	-7318
領導人	-7319
、6	-7320
包围	-7321
沙特	-7322
網球	-7323
终于	-7324
雲南	-7325
剩下	-7326
商务	-7327
名列	-7328
唐代	-7329
寫作	-7330
案例	-7331
火车站	-7332
进行的	-7333
,"	-7334
多項	-7335
猪笼	-7336
也可能	-7337
黑龙江省	-7338
他于	-7339
成化	-7340
的下	-7341
訊號	-7342
那麼	-7343
▁la	-7344
發動機	-7345
年代中期	-7346
交往	-7347
劇院	-7348
死者	-7349
。1946	-7350
。1983	-7351
不一	-7352
助攻	-7353
原創	-7354
ype	-7355
roid	-7356
電視動畫	-7357
不等	-7358
违反	-7359
造成了	-7360
他又	-7361
暗示	-7362
里奇	-7363
猪笼草	-7364
獎最佳	-7365
公會	-7366
原为	-7367
特烈	-7368
的信	-7369
群体	-7370
赛艇	-7371
众议院	-7372
程度上	-7373
族自治区	-7374
度假	-7375
思考	-7376
逃亡	-7377
首的	-7378
pen	-7379
▁En	-7380
人力	-7381
俗稱	-7382
党组	-7383
北侧	-7384
短片	-7385
補充	-7386
骑士	-7387
▁is	-7388
2。	-7389
一日	-7390
含量	-7391
施行	-7392
火车	-7393
相连	-7394
缺陷	-7395
月下旬	-7396
全境	-7397
战列	-7398
敌人	-7399
模擬	-7400
迫害	-7401
BBC	-7402
中國的	-7403
威爾斯	-7404
事宜	-7405
吉爾	-7406
手法	-7407
民用	-7408
男人	-7409
粮食	-7410
達州	-7411
350	-7412
腓特烈	-7413
发现了此天体	-7414
日和	-7415
活跃	-7416
长达	-7417
ash	-7418
期徒刑	-7419
為香港	-7420
。1989	-7421
ma	-7422
了其	-7423
伙伴	-7424
假設	-7425
撒冷	-7426
物浦	-7427
适应	-7428
電氣	-7429
-6,	-7430
原有的	-7431
主教座堂	-7432
卸任	-7433
战士	-7434
旋轉	-7435
江蘇	-7436
评估	-7437
獲勝	-7438
荃灣	-7439
過的	-7440
時代的	-7441
section	-7442
协商	-7443
尼奥	-7444
帕拉	-7445
死去	-7446
的總	-7447
不需要	-7448
相當於	-7449
巴嫩	-7450
轉為	-7451
南部的	-7452
亚美尼亚	-7453
克里斯蒂	-7454
▁普	-7455
交由	-7456
低於	-7457
玫瑰	-7458
1918	-7459
主办	-7460
多位	-7461
畫家	-7462
《》(	-7463
张专辑	-7464
改編自	-7465
的機會	-7466
塞爾維亞	-7467
。1986	-7468
布斯	-7469
教区	-7470
语的	-7471
鋼琴	-7472
意思是	-7473
届全国政协委员	-7474
之路	-7475
直徑	-7476
罪行	-7477
这部	-7478
高达	-7479
少将	-7480
更大	-7481
釋出	-7482
tel	-7483
DP	-7484
分的	-7485
捐款	-7486
月刊	-7487
遊客	-7488
▁1997	-7489
數的	-7490
。1985	-7491
?”	-7492
丘陵	-7493
体制	-7494
全线	-7495
圆形	-7496
年获	-7497
耶路	-7498
萨拉	-7499
辦事處	-7500
。1984	-7501
黎巴嫩	-7502
,2008	-7503
以至	-7504
橄榄	-7505
流傳	-7506
道教	-7507
3.5	-7508
巴伐利亚	-7509
TO	-7510
为其	-7511
之際	-7512
出租	-7513
和的	-7514
財務	-7515
颁布	-7516
日本人	-7517
DC	-7518
华东	-7519
單打	-7520
所辖	-7521
▁羅	-7522
炮兵	-7523
遷至	-7524
重點	-7525
▁HD	-7526
指挥官	-7527
书院	-7528
書記	-7529
武力	-7530
繪畫	-7531
span	-7532
一所	-7533
公顷	-7534
勇士	-7535
層的	-7536
溝通	-7537
瓦多	-7538
蓝色	-7539
辦理	-7540
韦尔	-7541
▁下	-7542
利尼	-7543
北洋	-7544
怀疑	-7545
次的	-7546
民兵	-7547
無限	-7548
▁尽管	-7549
耶路撒冷	-7550
▁斯	-7551
一事	-7552
南侧	-7553
反射	-7554
导师	-7555
享受	-7556
和小	-7557
株式	-7558
適應	-7559
的成績	-7560
的核心	-7561
創建	-7562
的石	-7563
他認為	-7564
推測	-7565
瑞拉	-7566
▁如果	-7567
主題曲	-7568
利物浦	-7569
医学院	-7570
。1982	-7571
--	-7572
力学	-7573
流通	-7574
直通	-7575
兩側	-7576
附屬	-7577
。1948	-7578
政变	-7579
飲食	-7580
硕士学位	-7581
ground	-7582
IF	-7583
之战	-7584
使者	-7585
全台	-7586
喜愛	-7587
寺院	-7588
治安	-7589
西元	-7590
金剛	-7591
有一些	-7592
告示	-7593
少量	-7594
是他	-7595
自稱	-7596
的主題	-7597
的事情	-7598
電視節目	-7599
以为	-7600
傷亡	-7601
埃爾	-7602
最为	-7603
行使	-7604
建筑师	-7605
第一名	-7606
uper	-7607
2》	-7608
全美	-7609
巴哈	-7610
灭绝	-7611
在內的	-7612
▁黃	-7613
做了	-7614
實體	-7615
更換	-7616
维修	-7617
也没有	-7618
行政区域	-7619
从此	-7620
兰州	-7621
具備	-7622
構造	-7623
率為	-7624
真菌	-7625
英鎊	-7626
郑州	-7627
IL	-7628
两年	-7629
各国	-7630
激素	-7631
相当于	-7632
列宁	-7633
所知	-7634
角逐	-7635
該校	-7636
交通部	-7637
,0	-7638
被發現	-7639
公投	-7640
哈特	-7641
巴爾	-7642
弘治	-7643
ook	-7644
比利牛	-7645
總督府	-7646
(189	-7647
出战	-7648
卡羅	-7649
工會	-7650
轉會	-7651
北美洲	-7652
下水	-7653
印地	-7654
島的	-7655
黄色	-7656
两位	-7657
單獨	-7658
外觀	-7659
家庄	-7660
悉尼	-7661
显著	-7662
村落	-7663
肉食性	-7664
定律	-7665
放映	-7666
最終以	-7667
是俄罗斯	-7668
塔基	-7669
巡演	-7670
希爾	-7671
相邻	-7672
竞技	-7673
在上	-7674
在今	-7675
報紙	-7676
录音	-7677
許可	-7678
黨的	-7679
开始在	-7680
。1987	-7681
皇室	-7682
維修	-7683
转换	-7684
查尔斯	-7685
理查德	-7686
为止	-7687
挖掘	-7688
書中	-7689
氯化	-7690
相近	-7691
賽馬	-7692
辅助	-7693
黎明	-7694
▁古	-7695
安妮	-7696
馬里	-7697
ild	-7698
北部的	-7699
来自于	-7700
De	-7701
希尔	-7702
服裝	-7703
校友	-7704
標題	-7705
的总	-7706
迪斯	-7707
女歌手	-7708
前后	-7709
去了	-7710
地產	-7711
库尔	-7712
生日	-7713
的副	-7714
部曲	-7715
▁style	-7716
乌斯	-7717
体现	-7718
增設	-7719
師範	-7720
翌日	-7721
1,0	-7722
105	-7723
秘書長	-7724
勳章	-7725
年正式	-7726
。1920	-7727
ii	-7728
可由	-7729
客串	-7730
年时	-7731
東區	-7732
生育	-7733
骨骼	-7734
鱼类	-7735
旅客鐵道	-7736
在高	-7737
巴克	-7738
港澳	-7739
迄今	-7740
控制的	-7741
是臺灣	-7742
▁Mar	-7743
oo	-7744
不敵	-7745
之初	-7746
即時	-7747
蜘蛛	-7748
新台幣	-7749
的基本	-7750
▁因	-7751
位列	-7752
德军	-7753
新生	-7754
)10	-7755
eng	-7756
再加上	-7757
周恩来	-7758
甘肃省	-7759
航空母	-7760
但被	-7761
聖誕	-7762
身高	-7763
雅各	-7764
ale	-7765
ome	-7766
,2021	-7767
承诺	-7768
日以	-7769
第一季	-7770
北起顺时针与	-7771
)」	-7772
一群	-7773
巴拿	-7774
的行為	-7775
進士出身	-7776
園區	-7777
夫婦	-7778
崇禎	-7779
甲板	-7780
鏡頭	-7781
首爾	-7782
建筑物	-7783
猶太人	-7784
個體	-7785
協定	-7786
RNA	-7787
僅次於	-7788
宣称	-7789
年有	-7790
的和	-7791
路上	-7792
一期	-7793
具體	-7794
夫妻	-7795
实体	-7796
機動	-7797
軍人	-7798
流域面積	-7799
一等	-7800
参考	-7801
只好	-7802
此一	-7803
每月	-7804
較少	-7805
這段	-7806
预算	-7807
ans	-7808
全国重点文物保护单位	-7809
公頃	-7810
常被	-7811
更名	-7812
演讲	-7813
穿著	-7814
航站	-7815
雷達	-7816
▁An	-7817
紐西蘭	-7818
▁莫	-7819
卫队	-7820
硬币	-7821
终点	-7822
车厢	-7823
暂停	-7824
洛伊	-7825
深受	-7826
中国科学院	-7827
专区	-7828
四名	-7829
国有	-7830
埃德	-7831
文藝	-7832
未被	-7833
長大	-7834
是為了	-7835
選舉中	-7836
仅有	-7837
她们	-7838
武昌	-7839
熟悉	-7840
臺南市	-7841
斯洛伐克	-7842
Am	-7843
Le	-7844
Re	-7845
型號	-7846
1.2	-7847
党委	-7848
玩具	-7849
近似	-7850
進而	-7851
▁Ser	-7852
乌鲁	-7853
觉得	-7854
轄區	-7855
第二天	-7856
頒獎典禮	-7857
同期	-7858
寻求	-7859
攻勢	-7860
更有	-7861
气温	-7862
表彰	-7863
鼓励	-7864
是德國	-7865
HO	-7866
依賴	-7867
区分	-7868
文中	-7869
祖籍	-7870
儲存	-7871
史料	-7872
回归	-7873
死于	-7874
痛苦	-7875
矩阵	-7876
总额为	-7877
模特兒	-7878
ower	-7879
yl	-7880
巨人	-7881
強制	-7882
改用	-7883
自称	-7884
认可	-7885
的事件	-7886
阿拉斯	-7887
CS	-7888
华北	-7889
夕法	-7890
西路	-7891
俄軍	-7892
公務	-7893
是中	-7894
本部	-7895
現為	-7896
美麗	-7897
▁Re	-7898
的結果	-7899
分歧	-7900
盟軍	-7901
修正案	-7902
為基礎	-7903
香港政府	-7904
五大	-7905
傳奇	-7906
北宋	-7907
夫的	-7908
游行	-7909
。1958	-7910
前夕	-7911
现为	-7912
女演員	-7913
的一名	-7914
1928	-7915
亦為	-7916
出兵	-7917
碎片	-7918
较大	-7919
開業	-7920
沿海省份	-7921
之为	-7922
在本	-7923
ount	-7924
以及其他	-7925
國家公園	-7926
上訴	-7927
指数	-7928
流經	-7929
镜头	-7930
閱讀	-7931
2,000	-7932
▁1995	-7933
加利福尼亞州	-7934
▁但	-7935
构造	-7936
翻新	-7937
克拉克	-7938
▁1950	-7939
了该	-7940
區間	-7941
台的	-7942
弗吉	-7943
當代	-7944
公司在	-7945
年球季	-7946
▁Mus	-7947
拘捕	-7948
選民	-7949
領事	-7950
240	-7951
葡萄牙语	-7952
!”	-7953
▁奥	-7954
則以	-7955
故此	-7956
數為	-7957
起訴	-7958
增至	-7959
夫勒	-7960
普森	-7961
登堡	-7962
ted	-7963
是中國	-7964
研究员	-7965
體育場	-7966
可以使用	-7967
TS	-7968
二百	-7969
典礼	-7970
均為	-7971
彈藥	-7972
盟友	-7973
經費	-7974
有很多	-7975
連續劇	-7976
8.	-7977
传媒	-7978
最具	-7979
Met	-7980
场比赛	-7981
GA	-7982
拉尔	-7983
法定	-7984
瑞克	-7985
适合	-7986
▁Me	-7987
在英國	-7988
居民点	-7989
設計師	-7990
,2014	-7991
。1938	-7992
GP	-7993
协定	-7994
樂園	-7995
补充	-7996
餐厅	-7997
box	-7998
參演	-7999
培訓	-8000
清晰	-8001
脱离	-8002
Mic	-8003
▁本站	-8004
同時也是	-8005
乡村	-8006
光明	-8007
北伐	-8008
委托	-8009
珠海	-8010
线性	-8011
〉、	-8012
地表	-8013
天王	-8014
得出	-8015
情緒	-8016
景区	-8017
法人	-8018
說是	-8019
、21	-8020
游戏的	-8021
Facebook	-8022
初中	-8023
和南	-8024
區議員	-8025
的名称	-8026
知名的	-8027
亚军	-8028
射入	-8029
毒品	-8030
该校	-8031
倫多	-8032
對陣	-8033
屠殺	-8034
户部	-8035
担心	-8036
特雷	-8037
離子	-8038
1933	-8039
▁y	-8040
收回	-8041
木材	-8042
集結	-8043
ins	-8044
row	-8045
世纪的	-8046
縣政府	-8047
rist	-8048
的模式产	-8049
否認	-8050
始于	-8051
瀑布	-8052
▁1993	-8053
副总	-8054
在阿	-8055
宁夏	-8056
实践	-8057
本來	-8058
酒精	-8059
年以來	-8060
色情	-8061
黄河	-8062
第一代	-8063
设计的	-8064
了自己的	-8065
不幸	-8066
中也	-8067
应对	-8068
來自於	-8069
周刊	-8070
移除	-8071
管道	-8072
而來	-8073
-23	-8074
Ge	-8075
在的	-8076
批复	-8077
接待	-8078
摩托	-8079
出現了	-8080
描述了	-8081
常用	-8082
提倡	-8083
生意	-8084
的二	-8085
終止	-8086
预测	-8087
ose	-8088
会议员	-8089
建造的	-8090
小平	-8091
aur	-8092
万平方米	-8093
县级	-8094
始於	-8095
拉姆	-8096
每週	-8097
赛中	-8098
会议上	-8099
▁[	-8100
患有	-8101
最小	-8102
气压	-8103
爱国	-8104
省会	-8105
对称	-8106
沖繩	-8107
空降	-8108
▁1994	-8109
该物种的模式产	-8110
他為	-8111
租借	-8112
離婚	-8113
1932	-8114
ound	-8115
以及中国大陆的	-8116
信用	-8117
分区	-8118
多家	-8119
现存	-8120
神话	-8121
这项	-8122
印度洋	-8123
县的一个	-8124
節奏	-8125
評審	-8126
阿基坦	-8127
▁col	-8128
,2015	-8129
這類	-8130
国家级	-8131
与此同时	-8132
▁梅	-8133
在海	-8134
學的	-8135
泰因	-8136
穿过	-8137
App	-8138
ade	-8139
海姆	-8140
营业	-8141
过渡	-8142
。1979	-8143
大厦	-8144
法拉	-8145
常见的	-8146
建築師	-8147
月開始	-8148
認為是	-8149
假设	-8150
取了	-8151
太祖	-8152
局面	-8153
生前	-8154
ystem	-8155
圣母	-8156
改裝	-8157
背面	-8158
!」	-8159
保育	-8160
叛亂	-8161
维也	-8162
苗栗	-8163
傳統的	-8164
类似于	-8165
ward	-8166
亦被	-8167
戰績	-8168
航海	-8169
出版的	-8170
安县	-8171
宗座	-8172
支出	-8173
爾夫	-8174
发布了	-8175
廣東省	-8176
球运动员	-8177
但卻	-8178
当中	-8179
遵循	-8180
頭銜	-8181
服务器	-8182
五百	-8183
神的	-8184
謀殺	-8185
诗歌	-8186
的中国	-8187
元的	-8188
出局	-8189
和第	-8190
当代	-8191
影视	-8192
无锡	-8193
觀賞	-8194
陣營	-8195
,2019	-8196
。1937	-8197
。1978	-8198
特別行政區	-8199
分區	-8200
發電廠	-8201
部分的	-8202
▁它	-8203
是從	-8204
直隶	-8205
站和	-8206
觀塘	-8207
日晚上	-8208
深圳市	-8209
客戶	-8210
宰相	-8211
日文	-8212
王朱	-8213
资助	-8214
進口	-8215
125	-8216
驱逐舰	-8217
“”	-8218
人與	-8219
全新	-8220
同事	-8221
弗兰	-8222
房间	-8223
雕刻	-8224
aj	-8225
不敢	-8226
严格	-8227
布置	-8228
普里	-8229
线和	-8230
登進士	-8231
的最大	-8232
仍是	-8233
改稱	-8234
格爾	-8235
诉讼	-8236
。14	-8237
不知道	-8238
▁德	-8239
積分	-8240
事实上	-8241
合作的	-8242
▁1992	-8243
background	-8244
_4	-8245
停车	-8246
元件	-8247
全民	-8248
判决	-8249
回收	-8250
天空	-8251
合肥	-8252
数百	-8253
曾為	-8254
草地	-8255
起點	-8256
之一的	-8257
居委会	-8258
棲息深度	-8259
战队	-8260
熱門	-8261
物體	-8262
1912	-8263
,2017	-8264
原料	-8265
女人	-8266
影評	-8267
指责	-8268
遗传	-8269
阿斯	-8270
主義的	-8271
就读于	-8272
的說法	-8273
一項	-8274
六世	-8275
即将	-8276
呈现	-8277
影視	-8278
搭乘	-8279
派往	-8280
行程	-8281
過於	-8282
领地	-8283
omm	-8284
同性戀	-8285
亞美	-8286
分割	-8287
档案	-8288
樂器	-8289
而死	-8290
传统的	-8291
1934	-8292
最為	-8293
王的	-8294
相继	-8295
船只	-8296
输出	-8297
三角形	-8298
作品中	-8299
的一所	-8300
在校	-8301
大力	-8302
洛阳	-8303
磷酸	-8304
精靈	-8305
这也是	-8306
cc	-8307
产物	-8308
創新	-8309
加泰	-8310
多爾	-8311
是被	-8312
进口	-8313
金像	-8314
▁以下	-8315
世纪末	-8316
可能的	-8317
世界各地	-8318
”“	-8319
中途	-8320
北路	-8321
普京	-8322
的歌	-8323
硬棘	-8324
賽中	-8325
重慶	-8326
▁/&	-8327
外交官	-8328
於香港	-8329
地方政府	-8330
▁帕	-8331
保健	-8332
公式	-8333
分局	-8334
化工	-8335
和水	-8336
帆船	-8337
政務	-8338
流放	-8339
顯著	-8340
優先	-8341
後被	-8342
漸漸	-8343
那州	-8344
。1970	-8345
1-	-8346
喇嘛	-8347
大众	-8348
珍珠	-8349
萬張	-8350
的文章	-8351
采用了	-8352
du	-8353
曾于	-8354
特蘭	-8355
纤维	-8356
並止於	-8357
na	-8358
仅仅	-8359
例外	-8360
布局	-8361
情形	-8362
皮肤	-8363
船舶	-8364
部副部长	-8365
二等	-8366
合金	-8367
温带	-8368
當作	-8369
识别	-8370
CST	-8371
德里克	-8372
,2018	-8373
。1960	-8374
元帅	-8375
和解	-8376
师长	-8377
次數	-8378
派人	-8379
煤炭	-8380
设在	-8381
部下	-8382
首張	-8383
同时也	-8384
注意到	-8385
党委书记	-8386
ts	-8387
化为	-8388
宇航	-8389
数的	-8390
陣容	-8391
ini	-8392
、10	-8393
是巴西	-8394
▁瓦	-8395
南端	-8396
可用	-8397
國中	-8398
是为	-8399
極為	-8400
致命	-8401
集會	-8402
黨籍	-8403
ata	-8404
纪念碑	-8405
綜藝節目	-8406
罗马帝国	-8407
▁劉	-8408
▁周	-8409
正義	-8410
烈士	-8411
爭奪	-8412
战争中	-8413
第一屆	-8414
總教區	-8415
夫妇	-8416
西比	-8417
ank	-8418
遊戲的	-8419
EX	-8420
區分	-8421
原為	-8422
图案	-8423
强制	-8424
接力	-8425
是其	-8426
納州	-8427
只有一	-8428
color	-8429
).	-8430
劇團	-8431
厚的	-8432
并以	-8433
都能	-8434
;),	-8435
red	-8436
的电影	-8437
第一次世界大战	-8438
ps	-8439
俄亥	-8440
保卫	-8441
前任	-8442
牙齒	-8443
苹果	-8444
證券	-8445
線路口	-8446
该市镇	-8447
to	-8448
克爾	-8449
封為	-8450
認定	-8451
這座	-8452
2.0	-8453
人口的	-8454
。1947	-8455
OV	-8456
了对	-8457
其為	-8458
強化	-8459
纳斯	-8460
俄亥俄	-8461
出來的	-8462
之父	-8463
最新	-8464
末年	-8465
群體	-8466
-5(	-8467
生活的	-8468
依法	-8469
前來	-8470
1919	-8471
GC	-8472
一架	-8473
危害	-8474
古斯	-8475
各界	-8476
山谷	-8477
後在	-8478
接到	-8479
過世	-8480
ald	-8481
ink	-8482
的法律	-8483
的结果	-8484
▁聖	-8485
下去	-8486
酒吧	-8487
靈魂	-8488
是英國	-8489
的行为	-8490
。1956	-8491
的特有植物	-8492
宋朝	-8493
的自	-8494
,15	-8495
CDT	-8496
ake	-8497
夏朗德	-8498
了三	-8499
共識	-8500
学的	-8501
最少	-8502
最快	-8503
研制	-8504
残疾人	-8505
▁朱	-8506
囚犯	-8507
的長	-8508
她曾代表	-8509
──	-8510
創下	-8511
比爾	-8512
112	-8513
▁法国	-8514
发现的	-8515
蛋白质	-8516
,2020	-8517
即北美中部	-8518
人稱	-8519
天气	-8520
布爾	-8521
房間	-8522
特和	-8523
省长	-8524
譴責	-8525
▁0	-8526
。)	-8527
姓名	-8528
平坦	-8529
羅夫	-8530
详细	-8531
贝格	-8532
電動	-8533
預備	-8534
anc	-8535
多利亚	-8536
臺中市	-8537
;"	-8538
官兵	-8539
支队	-8540
隔離	-8541
问题的	-8542
子彈	-8543
寫道	-8544
影業	-8545
接手	-8546
特区	-8547
總共	-8548
這裡	-8549
高層	-8550
办公厅	-8551
致力于	-8552
重庆市	-8553
中午	-8554
出境	-8555
升降	-8556
各有	-8557
而有	-8558
鄉道	-8559
战争期间	-8560
氏的	-8561
阿列	-8562
體驗	-8563
停車場	-8564
保加利亞	-8565
、7	-8566
曝光	-8567
球的	-8568
耶律	-8569
邊為	-8570
重組	-8571
電池	-8572
編號為	-8573
olog	-8574
北面	-8575
可供	-8576
審判	-8577
索恩	-8578
▁一些	-8579
一直是	-8580
天文學家	-8581
RS	-8582
圣经	-8583
奇幻	-8584
山縣	-8585
觀音	-8586
野战	-8587
中书	-8588
内有	-8589
出于	-8590
发掘	-8591
变量	-8592
录制	-8593
总体	-8594
流動	-8595
生素	-8596
的古	-8597
约有	-8598
型机车	-8599
的女儿	-8600
迈克尔	-8601
广播电台	-8602
县人	-8603
受损	-8604
引力	-8605
敘述	-8606
陨坑	-8607
高于	-8608
在內	-8609
心臟	-8610
撞擊	-8611
正确	-8612
进程	-8613
同知	-8614
处的	-8615
Mac	-8616
”()	-8617
”),	-8618
▁同年	-8619
个市镇	-8620
出現的	-8621
0.00	-8622
》)	-8623
人所	-8624
从未	-8625
其为	-8626
北上	-8627
崛起	-8628
德利	-8629
消滅	-8630
都要	-8631
理事会	-8632
1917	-8633
布列塔尼	-8634
最著名的	-8635
两条	-8636
各省	-8637
带着	-8638
武士	-8639
特斯	-8640
織田	-8641
roup	-8642
纳入	-8643
线上	-8644
起義	-8645
途径	-8646
出版了	-8647
獨立的	-8648
的妻子	-8649
全數	-8650
eth	-8651
工作人员	-8652
中華民國政府	-8653
Android	-8654
▁陈	-8655
在外	-8656
拘留	-8657
指數	-8658
特在	-8659
继任	-8660
肯尼	-8661
通勤	-8662
oll	-8663
ult	-8664
家族的	-8665
战场	-8666
殿試	-8667
驻地	-8668
塞拜疆	-8669
紀錄片	-8670
维也纳	-8671
▁至	-8672
上演	-8673
兩條	-8674
后于	-8675
復活	-8676
機槍	-8677
▁Be	-8678
創辦人	-8679
卡斯蒂	-8680
。1940	-8681
品的	-8682
培養	-8683
甲組	-8684
莫尔	-8685
费用	-8686
金門	-8687
钢琴	-8688
雄性	-8689
喬治亞	-8690
的兒子	-8691
轟炸機	-8692
側的	-8693
先發	-8694
前進	-8695
直属	-8696
部件	-8697
霍夫	-8698
ual	-8699
中飾演	-8700
參議院	-8701
奧運會	-8702
研究的	-8703
保證	-8704
歸類	-8705
登记	-8706
種類	-8707
縣長	-8708
該劇	-8709
並且在	-8710
了一份	-8711
動工	-8712
棕色	-8713
獅子	-8714
碰撞	-8715
其他人	-8716
區議會選舉	-8717
制服	-8718
加密	-8719
宣誓	-8720
會社	-8721
爵位	-8722
皮膚	-8723
该站	-8724
▁虽然	-8725
以下的	-8726
年获得	-8727
列斯	-8728
它们的	-8729
則於	-8730
多樣	-8731
專案	-8732
競技	-8733
被俘	-8734
主教练	-8735
,2016	-8736
伯恩	-8737
削弱	-8738
摇滚	-8739
木齐	-8740
1914	-8741
▁到	-8742
两者	-8743
六十	-8744
常规	-8745
细菌	-8746
谴责	-8747
較高	-8748
4.5	-8749
交叉口	-8750
受欢迎	-8751
所需的	-8752
民主派	-8753
的控制	-8754
主播	-8755
托勒	-8756
注射	-8757
瓦拉	-8758
縣道	-8759
行業	-8760
ana	-8761
社會主義	-8762
並有	-8763
码头	-8764
足联	-8765
参议员	-8766
科進士	-8767
人均	-8768
取代了	-8769
另一位	-8770
。1955	-8771
一职	-8772
军人	-8773
尼爾	-8774
混亂	-8775
索姆	-8776
翻唱	-8777
耶尔	-8778
製成	-8779
和高	-8780
塔克	-8781
打敗	-8782
死於	-8783
认证	-8784
保留了	-8785
的文化	-8786
乌鲁木齐	-8787
投入使用	-8788
。1981	-8789
TP	-8790
夢想	-8791
头衔	-8792
鎮壓	-8793
年完成	-8794
直升機	-8795
中將	-8796
威斯	-8797
打入	-8798
橄欖	-8799
紧张	-8800
腹部	-8801
长安	-8802
生產的	-8803
二氧化碳	-8804
他对	-8805
公正	-8806
出一	-8807
壘打	-8808
编组	-8809
进球	-8810
過度	-8811
記者會	-8812
中國共產黨	-8813
在三	-8814
抗战	-8815
深水	-8816
ATP	-8817
和美国	-8818
占地面积	-8819
主动	-8820
前去	-8821
攜帶	-8822
林肯	-8823
青山	-8824
往來	-8825
清理	-8826
通报	-8827
伊尔	-8828
戰國	-8829
新村	-8830
環保	-8831
繼任	-8832
股東	-8833
號為	-8834
公布为	-8835
的香港	-8836
賽冠軍	-8837
内地	-8838
封为	-8839
屍體	-8840
待遇	-8841
防衛	-8842
9.	-8843
各項	-8844
美的	-8845
销量	-8846
:1	-8847
公使	-8848
前进	-8849
國小	-8850
层的	-8851
簽下	-8852
米兰	-8853
lix	-8854
该地区	-8855
因在	-8856
庄為	-8857
樂壇	-8858
混淆	-8859
行李	-8860
論壇	-8861
调任	-8862
並不是	-8863
4000	-8864
清华大学	-8865
裔美國人	-8866
夥伴	-8867
大地	-8868
民意	-8869
物资	-8870
確實	-8871
義務	-8872
获取	-8873
連同	-8874
龍科	-8875
克斯洛	-8876
年歐洲	-8877
美国人	-8878
CE	-8879
化為	-8880
对方	-8881
晚間	-8882
紛紛	-8883
領隊	-8884
▁+	-8885
向东	-8886
害怕	-8887
末端	-8888
大使館	-8889
的家庭	-8890
摩泽尔省	-8891
上空	-8892
主场	-8893
流入	-8894
參與了	-8895
Bl	-8896
军在	-8897
发达	-8898
影集	-8899
涵盖	-8900
虛構	-8901
记忆	-8902
第二代	-8903
传输	-8904
模糊	-8905
永遠	-8906
三十四年	-8907
三百	-8908
公演	-8909
巴马	-8910
於此	-8911
昆蟲	-8912
藉此	-8913
譯為	-8914
護照	-8915
額外	-8916
這也是	-8917
▁1991	-8918
的比	-8919
超市	-8920
一開始	-8921
了许多	-8922
去世后	-8923
有一座	-8924
捷克斯洛	-8925
)》	-8926
de	-8927
不太	-8928
刊物	-8929
政變	-8930
條款	-8931
里尼	-8932
體型	-8933
點的	-8934
飞行员	-8935
me	-8936
嫌疑	-8937
气体	-8938
漢語	-8939
ava	-8940
奧斯卡	-8941
的學生	-8942
SN	-8943
几何	-8944
氨基	-8945
讀者	-8946
辦法	-8947
第十四	-8948
Br	-8949
ta	-8950
也很	-8951
交匯	-8952
川縣	-8953
民航	-8954
郡的	-8955
保护区	-8956
所在的	-8957
。1941	-8958
即北美中部時區	-8959
En	-8960
全程	-8961
大卫	-8962
專用	-8963
尸体	-8964
改進	-8965
斯德	-8966
馬場	-8967
的一部	-8968
級聯賽	-8969
電影的	-8970
▁克	-8971
临床	-8972
內有	-8973
剩余	-8974
千瓦	-8975
处决	-8976
大师	-8977
村庄	-8978
氨酸	-8979
詩人	-8980
AKB	-8981
發言人	-8982
HT	-8983
圖像	-8984
晚年	-8985
歷任	-8986
代表作	-8987
法蘭克	-8988
的政策	-8989
不用	-8990
充满	-8991
會以	-8992
法軍	-8993
阿密	-8994
難民	-8995
告示牌	-8996
认为是	-8997
博士學位	-8998
▁with	-8999
▁若	-9000
万吨	-9001
之处	-9002
事物	-9003
小孩	-9004
徹底	-9005
航線	-9006
该组织	-9007
▁博	-9008
清廷	-9009
發音	-9010
编写	-9011
行車	-9012
高宗	-9013
▁Ex	-9014
的关系	-9015
1924	-9016
ke	-9017
司机	-9018
數目	-9019
的口	-9020
虐待	-9021
108	-9022
edia	-9023
保加利亚	-9024
毗邻	-9025
▁Cl	-9026
导致了	-9027
琳娜	-9028
藤原	-9029
一方面	-9030
击败了	-9031
鱸形目	-9032
職業生涯	-9033
出去	-9034
在家	-9035
廣西	-9036
有線	-9037
父子	-9038
衝擊	-9039
举办的	-9040
在英国	-9041
球比赛	-9042
菲尔德	-9043
伊斯蘭教	-9044
新疆维吾尔	-9045
摩洛	-9046
段的	-9047
融入	-9048
论坛	-9049
在一个	-9050
的地區	-9051
進行的	-9052
UR	-9053
北韓	-9054
數個	-9055
溫泉	-9056
米蘭	-9057
ics	-9058
科医生	-9059
行政单位	-9060
年人口普查	-9061
▁明	-9062
乒乓	-9063
争取	-9064
夜間	-9065
的本	-9066
硫酸	-9067
里希	-9068
銀河	-9069
三國	-9070
大略	-9071
开行	-9072
新任	-9073
清晨	-9074
逃往	-9075
驅動	-9076
是因为	-9077
有一定	-9078
足球队	-9079
▁pro	-9080
属的动物	-9081
〉,	-9082
山上	-9083
數十	-9084
曼谷	-9085
翡翠	-9086
隊友	-9087
雲林	-9088
公开赛	-9089
的版本	-9090
這首歌	-9091
少数民族	-9092
▁永	-9093
亞科	-9094
否則	-9095
和三	-9096
嘉賓	-9097
型態	-9098
感觉	-9099
携带	-9100
潛艇	-9101
直流	-9102
在全球	-9103
开发区	-9104
,,	-9105
:《	-9106
加爾	-9107
區別	-9108
外籍	-9109
撤銷	-9110
業者	-9111
种类	-9112
结论	-9113
老人	-9114
视觉	-9115
谋杀	-9116
購入	-9117
相較於	-9118
遇到了	-9119
▁1988	-9120
。1952	-9121
org	-9122
▁隨著	-9123
的情形	-9124
解放軍	-9125
亞美尼亞	-9126
rosoft	-9127
土木	-9128
埃塞	-9129
或稱	-9130
秋季	-9131
與此	-9132
any	-9133
中使用	-9134
TR	-9135
主导	-9136
晶体	-9137
暴雨	-9138
职工	-9139
总书记	-9140
的音乐	-9141
同时也是	-9142
迷你專輯	-9143
ilver	-9144
(、	-9145
仍未	-9146
厄尔	-9147
就此	-9148
混乱	-9149
選票	-9150
鄉村	-9151
管理的	-9152
航站楼	-9153
一场	-9154
交給	-9155
候車	-9156
參觀	-9157
手术	-9158
擴建	-9159
網民	-9160
获胜	-9161
預定	-9162
科学技术	-9163
之事	-9164
因病	-9165
次于	-9166
準確	-9167
滑冰	-9168
app	-9169
〉、〈	-9170
他认为	-9171
代表團	-9172
可以被	-9173
无线电	-9174
角色的	-9175
▁i	-9176
▁刘	-9177
不合	-9178
即為	-9179
古蹟	-9180
大和	-9181
奴隸	-9182
戀愛	-9183
抵制	-9184
故居	-9185
洞穴	-9186
白金	-9187
1.6	-9188
▁Ph	-9189
1929	-9190
高等教育	-9191
奧爾	-9192
安葬	-9193
提起	-9194
术语	-9195
異常	-9196
脂肪	-9197
▁比	-9198
专用	-9199
全体	-9200
尔顿	-9201
愿意	-9202
撤回	-9203
書寫	-9204
賽駒	-9205
重力	-9206
发表了	-9207
更高的	-9208
克罗地亚	-9209
具备	-9210
多样	-9211
富有	-9212
桂林	-9213
法尔	-9214
率军	-9215
▁罗	-9216
人事	-9217
名詞	-9218
圖曼	-9219
天橋	-9220
封鎖	-9221
診斷	-9222
議長	-9223
《》。	-9224
境内的	-9225
下載	-9226
更好	-9227
殺人	-9228
西州	-9229
选区	-9230
相互作用	-9231
该省份为法国北部	-9232
)3	-9233
伤亡	-9234
先行	-9235
左派	-9236
暂时	-9237
真理	-9238
長約	-9239
雌性	-9240
ref	-9241
型柴油	-9242
HE	-9243
岛上	-9244
德語	-9245
out	-9246
▁車站	-9247
王朝的	-9248
合共	-9249
零件	-9250
顺利	-9251
NHK	-9252
最終在	-9253
沒有任何	-9254
组成部分	-9255
中央委员会	-9256
尚有	-9257
戰中	-9258
揭露	-9259
流程	-9260
迎接	-9261
118	-9262
日开始	-9263
的力量	-9264
上法蘭西	-9265
上法蘭西大區	-9266
▁波	-9267
圍繞	-9268
微软	-9269
時會	-9270
見到	-9271
選拔	-9272
局局長	-9273
意味著	-9274
波士顿	-9275
而成的	-9276
诺曼底	-9277
内蒙古自治区	-9278
修订	-9279
再生	-9280
标记	-9281
橫濱	-9282
疑似	-9283
除非	-9284
▁為了	-9285
的父親	-9286
中央政府	-9287
子和	-9288
行省	-9289
严重的	-9290
的可能性	-9291
维多利亚	-9292
准确	-9293
判斷	-9294
原作	-9295
吉祥	-9296
希伯	-9297
旋转	-9298
用品	-9299
西德	-9300
GO	-9301
▁沙	-9302
向前	-9303
戰艦	-9304
攻克	-9305
爪哇	-9306
重型	-9307
發現的	-9308
的美國	-9309
不含	-9310
既有	-9311
窗口	-9312
部位	-9313
共和黨	-9314
十九年	-9315
準決賽	-9316
總經理	-9317
都御史	-9318
▁Comp	-9319
▁为	-9320
企劃	-9321
做的	-9322
晋级	-9323
是瑞士	-9324
的大小	-9325
贵州省	-9326
产量	-9327
股權	-9328
赤道	-9329
軍方	-9330
预备	-9331
一直到	-9332
氣象廳	-9333
第一任	-9334
初始	-9335
是对	-9336
歌舞	-9337
沿線	-9338
致使	-9339
購物	-9340
首部	-9341
ony	-9342
ren	-9343
▁作为	-9344
特殊的	-9345
可汗	-9346
想到	-9347
此舉	-9348
称赞	-9349
斯特拉	-9350
有效的	-9351
感受	-9352
等同	-9353
绘画	-9354
聖母	-9355
-5,	-9356
強大的	-9357
彼得堡	-9358
数据库	-9359
的需求	-9360
羅伯特	-9361
2)	-9362
双打	-9363
器和	-9364
始終	-9365
早已	-9366
農曆	-9367
拿破仑	-9368
日宣布	-9369
物理学	-9370
的人士	-9371
中央军委	-9372
應用程式	-9373
▁石	-9374
不大	-9375
宗室	-9376
徐州	-9377
考量	-9378
而後	-9379
處長	-9380
▁Le	-9381
的內容	-9382
1922	-9383
的第一个	-9384
align	-9385
映射	-9386
服装	-9387
級的	-9388
世紀初	-9389
后来的	-9390
类似的	-9391
了一系列	-9392
▁飾	-9393
专科	-9394
探討	-9395
累計	-9396
之所以	-9397
职业生涯	-9398
乃至	-9399
后在	-9400
江市	-9401
法語	-9402
三十年	-9403
中南部	-9404
ream	-9405
▁唐	-9406
室内	-9407
廣島	-9408
星球	-9409
起兵	-9410
配樂	-9411
引起的	-9412
發生的	-9413
的轨道	-9414
等人的	-9415
年美国人口普查	-9416
▁正	-9417
加的	-9418
古城	-9419
年及	-9420
手的	-9421
沃克	-9422
特点	-9423
联军	-9424
靈感	-9425
馬丁	-9426
ari	-9427
找到了	-9428
普魯士	-9429
萨克森	-9430
▁Con	-9431
大学教授	-9432
阿基坦大区	-9433
“"	-9434
後才	-9435
是从	-9436
炸弹	-9437
籌備	-9438
东亚	-9439
很高	-9440
德罗	-9441
推理	-9442
用在	-9443
皆有	-9444
西岸	-9445
随机	-9446
多年的	-9447
办法	-9448
发送	-9449
本書	-9450
為大	-9451
路徑	-9452
並表示	-9453
丽莎白	-9454
發生於	-9455
》;	-9456
三国	-9457
传动	-9458
墓地	-9459
專注	-9460
引进	-9461
本劇	-9462
西蒙	-9463
開播	-9464
奥斯卡	-9465
ited	-9466
2-	-9467
世宗	-9468
升至	-9469
在地	-9470
天地	-9471
始终	-9472
巡逻	-9473
歧視	-9474
清末	-9475
马恩	-9476
佛羅里	-9477
稱之為	-9478
冲击	-9479
新华	-9480
灌木	-9481
运作	-9482
站位于	-9483
avid	-9484
是一個位於	-9485
加利福尼亚州	-9486
%)	-9487
ci	-9488
切尔	-9489
南投	-9490
容纳	-9491
溪流	-9492
陪同	-9493
Rob	-9494
选举中	-9495
飛行員	-9496
。1939	-9497
。1954	-9498
利桑	-9499
匈奴	-9500
土著	-9501
嬰兒	-9502
廟宇	-9503
聯軍	-9504
▁嘉靖	-9505
局局长	-9506
為台灣	-9507
為日本	-9508
阿尔巴	-9509
1931	-9510
▁Col	-9511
▁或	-9512
▁胡	-9513
全體	-9514
前作	-9515
契丹	-9516
林中	-9517
灣仔	-9518
这两个	-9519
flix	-9520
公所	-9521
应当	-9522
生殖	-9523
离心	-9524
起草	-9525
車型	-9526
170	-9527
center	-9528
亦會	-9529
司职	-9530
名义	-9531
和歌	-9532
打開	-9533
编制	-9534
观看	-9535
鄂圖曼	-9536
在中国大陆	-9537
之用	-9538
加索	-9539
數百	-9540
的音	-9541
稱號	-9542
馬其	-9543
主打歌	-9544
时间为	-9545
称之为	-9546
Twit	-9547
ensis	-9548
新疆维吾尔自治区	-9549
之時	-9550
佔地	-9551
吉隆	-9552
哈根	-9553
底部	-9554
演講	-9555
年獲得	-9556
奥弗	-9557
好者	-9558
数十	-9559
步枪	-9560
爱情	-9561
AA	-9562
MO	-9563
他對	-9564
堂區	-9565
撤出	-9566
聲優	-9567
这时	-9568
东南亚	-9569
大獎賽	-9570
该物种的模式产地在	-9571
会被	-9572
公益	-9573
公约	-9574
出場	-9575
失蹤	-9576
更换	-9577
轉型	-9578
较低	-9579
1.8	-9580
中世纪	-9581
開始在	-9582
领事馆	-9583
年总人口	-9584
美国国家	-9585
,2022	-9586
和其	-9587
相繼	-9588
队员	-9589
存在于	-9590
位於該國北部	-9591
全線	-9592
描寫	-9593
榮獲	-9594
毫無	-9595
集體	-9596
的村落	-9597
Hz	-9598
▁二	-9599
內亞	-9600
公子	-9601
前期	-9602
可惜	-9603
多项	-9604
復仇	-9605
老虎	-9606
菩薩	-9607
按察司	-9608
Be	-9609
Co	-9610
_5	-9611
分組	-9612
筹备	-9613
罕見	-9614
運營	-9615
主要以	-9616
二十三年	-9617
俄國	-9618
多瓦	-9619
搭載	-9620
西區	-9621
所使用的	-9622
La	-9623
料理	-9624
曲的	-9625
等於	-9626
隊員	-9627
預期	-9628
▁其後	-9629
威尔士	-9630
是为了	-9631
▁For	-9632
在場	-9633
天體	-9634
民事	-9635
转任	-9636
VID	-9637
是当地	-9638
程度的	-9639
-21)	-9640
、8	-9641
件事	-9642
司徒	-9643
响应	-9644
年份	-9645
建国	-9646
華語	-9647
馬匹	-9648
习近平	-9649
他表示	-9650
是一所	-9651
法兰克	-9652
肯塔基	-9653
Game	-9654
中環	-9655
主编	-9656
亦曾	-9657
團結	-9658
家和	-9659
布蘭	-9660
延续	-9661
拉萨	-9662
據點	-9663
攻陷	-9664
認知	-9665
在當時	-9666
羅馬帝國	-9667
铁路车站	-9668
▁1989	-9669
?」	-9670
指責	-9671
最好	-9672
留学	-9673
蔬菜	-9674
irl	-9675
。20	-9676
參賽者	-9677
是韓國	-9678
ject	-9679
,2002	-9680
下的一个种	-9681
▁雷	-9682
五人	-9683
代数	-9684
原来	-9685
失望	-9686
孔子	-9687
并由	-9688
手下	-9689
才是	-9690
水泥	-9691
觀念	-9692
见于	-9693
▁°	-9694
探測	-9695
月到	-9696
海关	-9697
玻利	-9698
群眾	-9699
而来	-9700
斯科特	-9701
島式月台	-9702
均在	-9703
屏幕	-9704
州長	-9705
森的	-9706
讷省	-9707
車手	-9708
115	-9709
影響力	-9710
摩洛哥	-9711
厚度	-9712
否认	-9713
对话	-9714
巡航	-9715
幾何	-9716
流动	-9717
漫威	-9718
舰只	-9719
史蒂芬	-9720
後來的	-9721
存活	-9722
射手	-9723
戲院	-9724
標示	-9725
交會	-9726
出入	-9727
宇文	-9728
开幕	-9729
摩爾	-9730
群的	-9731
走了	-9732
钢铁	-9733
▁II	-9734
但因為	-9735
第二大	-9736
RO	-9737
两座	-9738
布什	-9739
歇尔	-9740
流传	-9741
的话	-9742
聚居	-9743
捷克斯洛伐克	-9744
个体	-9745
低地	-9746
曼哈	-9747
而已	-9748
街庄	-9749
馬達	-9750
的公司	-9751
類似的	-9752
化学式为	-9753
丞相	-9754
以致	-9755
制动	-9756
子科	-9757
安定	-9758
年第	-9759
擅長	-9760
縣治	-9761
電信	-9762
之後的	-9763
爆发后	-9764
高等法院	-9765
不被	-9766
吉利	-9767
和他	-9768
培育	-9769
支配	-9770
眾人	-9771
美食	-9772
识字	-9773
車的	-9774
▁De	-9775
流行的	-9776
的演出	-9777
ition	-9778
一项	-9779
中止	-9780
創意	-9781
而出	-9782
航线	-9783
討伐	-9784
的一系列	-9785
国家队参加	-9786
债务	-9787
全身	-9788
分泌	-9789
封闭	-9790
決策	-9791
突擊	-9792
西伯	-9793
难民	-9794
-4(	-9795
了許多	-9796
為主題	-9797
的自由	-9798
通过了	-9799
EA	-9800
▁黑	-9801
修斯	-9802
化和	-9803
国旗	-9804
地产	-9805
履行	-9806
得多	-9807
指南	-9808
深夜	-9809
特急	-9810
空襲	-9811
▁He	-9812
ings	-9813
巴士路線	-9814
嚴格	-9815
多為	-9816
签约	-9817
230	-9818
全壘打	-9819
杭州市	-9820
該地區	-9821
1927	-9822
國家足球隊	-9823
级行政单位	-9824
AI	-9825
一艘	-9826
之內	-9827
尼尔	-9828
巴特	-9829
布兰	-9830
忽略	-9831
留守	-9832
繪製	-9833
集成	-9834
的特殊	-9835
第二個	-9836
葡萄酒	-9837
封锁	-9838
巴比	-9839
港府	-9840
遷移	-9841
重复	-9842
oph	-9843
嚴重的	-9844
多倫多	-9845
本书	-9846
财务	-9847
选中	-9848
个国家	-9849
发布的	-9850
馬其頓	-9851
▁New	-9852
大部分的	-9853
慢慢	-9854
獨自	-9855
約克	-9856
阅读	-9857
阿克	-9858
之后的	-9859
獨特的	-9860
被列入	-9861
▁Windows	-9862
是自	-9863
東側	-9864
為何	-9865
▁儘管	-9866
组成员	-9867
新阿基坦大区	-9868
ha	-9869
不論	-9870
加快	-9871
国共	-9872
肖像	-9873
該年	-9874
誕生	-9875
配套	-9876
ike	-9877
放射性	-9878
蒋介石	-9879
1910	-9880
lass	-9881
全力	-9882
图尔	-9883
很有	-9884
权的	-9885
物資	-9886
病的	-9887
称呼	-9888
細節	-9889
该舰	-9890
the	-9891
屋頂	-9892
爾摩	-9893
世紀的	-9894
号种子	-9895
。1930	-9896
体操	-9897
八十	-9898
前鋒	-9899
塔拉	-9900
將他	-9901
EDT	-9902
為美國	-9903
青海省	-9904
政治委员	-9905
吐蕃	-9906
展现	-9907
建國	-9908
战中	-9909
春季	-9910
運送	-9911
那样	-9912
印地安	-9913
研究者	-9914
追溯至	-9915
党校	-9916
划入	-9917
塔利	-9918
拓跋	-9919
總計	-9920
He	-9921
MC	-9922
一层	-9923
公約	-9924
各级	-9925
牧師	-9926
者是	-9927
illiam	-9928
人道	-9929
改成	-9930
與大	-9931
重播	-9932
順序	-9933
ave	-9934
ict	-9935
的安全	-9936
▁格	-9937
承受	-9938
沿著	-9939
艺人	-9940
280	-9941
並成為	-9942
运动的	-9943
。1943	-9944
。1944	-9945
.)	-9946
UB	-9947
崇祯	-9948
纖維	-9949
▁by	-9950
▁随着	-9951
Linux	-9952
。1942	-9953
年冬季奥林匹克运动会	-9954
极端	-9955
道具	-9956
他将	-9957
则在	-9958
卜杜	-9959
州人	-9960
巡撫	-9961
普利	-9962
槍管	-9963
資深	-9964
起诉	-9965
速率	-9966
馬路	-9967
适用于	-9968
1921	-9969
Xbox	-9970
▁東	-9971
全省	-9972
助手	-9973
单一	-9974
完結	-9975
抽象	-9976
流经	-9977
素的	-9978
读书	-9979
费尔	-9980
陝西	-9981
Netflix	-9982
DR	-9983
▁塞	-9984
公墓	-9985
命中	-9986
塑料	-9987
多部	-9988
摩根	-9989
收益	-9990
有機	-9991
結論	-9992
西側	-9993
負擔	-9994
赛会	-9995
遗迹	-9996
let	-9997
但也有	-9998
奥弗涅	-9999
指挥部	-10000
範圍內	-10001
則會	-10002
建的	-10003
披露	-10004
监管	-10005
週刊	-10006
戰爭中	-10007
平方英里	-10008
日本氣象廳	-10009
位於該國中部	-10010
三星	-10011
单打	-10012
卡通	-10013
憑藉	-10014
灌溉	-10015
逃到	-10016
遇难	-10017
國際賽	-10018
查爾斯	-10019
伊斯兰教	-10020
屬肉食性	-10021
▁colspan	-10022
但它	-10023
圖案	-10024
增援	-10025
編入	-10026
英九	-10027
該區	-10028
重视	-10029
金額	-10030
體重	-10031
南京市	-10032
女性为	-10033
君士坦丁堡	-10034
Pr	-10035
开办	-10036
民生	-10037
派系	-10038
-24	-10039
▁id	-10040
决赛以	-10041
季後賽	-10042
岁人口	-10043
巡回赛	-10044
中毒	-10045
传递	-10046
光的	-10047
发育	-10048
大气	-10049
尼基	-10050
時常	-10051
期待	-10052
法学	-10053
尼泊尔	-10054
描述为	-10055
治所在	-10056
▁1960	-10057
RT	-10058
厅长	-10059
四周	-10060
是用	-10061
河水	-10062
立的	-10063
路軌	-10064
和一个	-10065
大東部	-10066
菲爾德	-10067
西日本	-10068
▁她	-10069
一號	-10070
交戰	-10071
意圖	-10072
標記	-10073
過往	-10074
驻扎	-10075
104	-10076
的地铁	-10077
努斯	-10078
基輔	-10079
新星	-10080
米勒	-10081
职责	-10082
贷款	-10083
在某些	-10084
直路後	-10085
达到了	-10086
皆為陸地	-10087
;0	-10088
中和	-10089
後衛	-10090
現有	-10091
社團	-10092
足總	-10093
類別	-10094
不存在	-10095
年建成	-10096
的平均	-10097
臺灣省	-10098
▁原	-10099
亦於	-10100
高铁	-10101
一個月	-10102
电影节	-10103
投入服務	-10104
中央电视台	-10105
剩餘	-10106
年幼	-10107
幽默	-10108
彩虹	-10109
應對	-10110
拓展	-10111
时段	-10112
景點	-10113
示范	-10114
般的	-10115
說服	-10116
的学生	-10117
的经济	-10118
第二个	-10119
是南極洲的	-10120
假日	-10121
公会	-10122
共用	-10123
半球	-10124
疏散	-10125
纺织	-10126
1.3	-10127
lor	-10128
了一座	-10129
年去世	-10130
开始了	-10131
經濟學	-10132
警察局	-10133
lo	-10134
一間	-10135
下行	-10136
伊州	-10137
凤凰	-10138
学堂	-10139
转会	-10140
106	-10141
▁Co	-10142
任命为	-10143
生长在	-10144
克西塔尼	-10145
新冠肺炎	-10146
2(	-10147
正規	-10148
生母	-10149
社長	-10150
複製	-10151
首领	-10152
tes	-10153
中表示	-10154
为基础	-10155
仅次于	-10156
安東尼	-10157
府知府	-10158
1200	-10159
1908	-10160
佔據	-10161
千年	-10162
名录	-10163
幸存	-10164
編寫	-10165
缺少	-10166
識別	-10167
較大	-10168
ane	-10169
吉隆坡	-10170
类型的	-10171
首次在	-10172
乡镇级行政单位	-10173
东路	-10174
廠商	-10175
物業	-10176
穿過	-10177
立面	-10178
战列舰	-10179
行政區劃	-10180
招收	-10181
權益	-10182
被指	-10183
urn	-10184
的成绩	-10185
目的地	-10186
錄音室	-10187
▁1970	-10188
My	-10189
▁:	-10190
保定	-10191
南面	-10192
电信	-10193
电池	-10194
的花	-10195
盟军	-10196
轉投	-10197
預防	-10198
年担任	-10199
的形象	-10200
1905	-10201
亚当	-10202
教室	-10203
福岡	-10204
可能在	-10205
美術館	-10206
是下辖的一个	-10207
位於該國東南部	-10208
▁皮	-10209
不變	-10210
接着	-10211
清除	-10212
聽到	-10213
贝克	-10214
的说法	-10215
適用於	-10216
正式成立	-10217
午科	-10218
名誉	-10219
调节	-10220
賦予	-10221
這兩	-10222
New	-10223
▁be	-10224
体育馆	-10225
將軍澳	-10226
更好的	-10227
二十二年	-10228
升为	-10229
巴里	-10230
背部	-10231
車身	-10232
和社会	-10233
伊丽莎白	-10234
。1975	-10235
ternational	-10236
來看	-10237
大堂	-10238
燃燒	-10239
珍妮	-10240
画面	-10241
當初	-10242
等站	-10243
警務	-10244
是一颗恒星	-10245
▁School	-10246
中华人民共和国成立后	-10247
七十	-10248
假期	-10249
其次	-10250
失利	-10251
异常	-10252
纳尔	-10253
行性	-10254
的信息	-10255
Ed	-10256
他所	-10257
务段	-10258
尾巴	-10259
延期	-10260
阵线	-10261
360	-10262
年成为	-10263
的地区	-10264
知名度	-10265
3,000	-10266
住所	-10267
六個	-10268
南站	-10269
司司	-10270
戰敗	-10271
搭载	-10272
旺斯	-10273
育有	-10274
蒂斯	-10275
年中国	-10276
下轄	-10277
大名	-10278
张家	-10279
月后	-10280
火災	-10281
照明	-10282
省委	-10283
祖母	-10284
alk	-10285
的最佳	-10286
大東部大區	-10287
地势	-10288
秀吉	-10289
華納	-10290
限於	-10291
ise	-10292
ler	-10293
吸引了	-10294
和政治	-10295
然而在	-10296
诺贝尔	-10297
还包括	-10298
1925	-10299
3。	-10300
一面	-10301
卓越	-10302
卡西	-10303
取景	-10304
命運	-10305
天後	-10306
開展	-10307
的居民	-10308
它被	-10309
攻下	-10310
金鐘	-10311
ott	-10312
曾多次	-10313
組織的	-10314
二十一年	-10315
IU	-10316
一周	-10317
份子	-10318
司機	-10319
封建	-10320
工藝	-10321
捕捉	-10322
掌管	-10323
朝日	-10324
疼痛	-10325
解析	-10326
賠償	-10327
人民幣	-10328
的表現	-10329
值的	-10330
剧场	-10331
号和	-10332
帕克	-10333
时速	-10334
梅尔	-10335
民黨	-10336
販售	-10337
轉變	-10338
转为	-10339
體制	-10340
128	-10341
八路军	-10342
出色的	-10343
这首歌	-10344
LO	-10345
cm	-10346
庄村	-10347
洋基	-10348
的白	-10349
糧食	-10350
罢工	-10351
要在	-10352
车手	-10353
魚體	-10354
台灣的	-10355
處理器	-10356
經紀公司	-10357
中場	-10358
中方	-10359
事变	-10360
二期	-10361
佩斯	-10362
戰勝	-10363
會將	-10364
车体	-10365
,20	-10366
220	-10367
在一些	-10368
效力于	-10369
铁路的	-10370
PG	-10371
五代	-10372
发音	-10373
彩色	-10374
流的	-10375
2.4	-10376
了一段	-10377
式站台	-10378
日早上	-10379
电气化	-10380
發生了	-10381
able	-10382
三種	-10383
人心	-10384
分辨	-10385
补助	-10386
重组	-10387
雷达	-10388
)11	-10389
450	-10390
後來在	-10391
illa	-10392
▁Man	-10393
为期	-10394
敲出	-10395
斯克州	-10396
的地下	-10397
▁黄	-10398
区内	-10399
外星	-10400
對稱	-10401
尼的	-10402
番茄	-10403
當晚	-10404
,13	-10405
-22	-10406
5.5	-10407
大将军	-10408
國家安全	-10409
。1951	-10410
西藏自治区	-10411
,(	-10412
之旅	-10413
半部	-10414
戰機	-10415
沃爾	-10416
被人	-10417
长官	-10418
oci	-10419
一般的	-10420
东南接	-10421
反对派	-10422
西北接	-10423
设计师	-10424
巴伐利亞	-10425
应用程序	-10426
航空母艦	-10427
。"	-10428
並為	-10429
北站	-10430
北至	-10431
场地	-10432
提醒	-10433
旺角	-10434
福克	-10435
續集	-10436
防疫	-10437
霍尔	-10438
传教士	-10439
。1959	-10440
受損	-10441
托尔	-10442
缺席	-10443
下列	-10444
国道	-10445
自己是	-10446
Fran	-10447
▁烏克蘭	-10448
阿塞拜疆	-10449
不想	-10450
二級	-10451
包裹	-10452
和在	-10453
好评	-10454
帕尔	-10455
氣溫	-10456
魁北	-10457
109	-10458
enc	-10459
法西斯	-10460
约翰逊	-10461
國立臺灣	-10462
是世界上	-10463
两岸	-10464
号为	-10465
同為	-10466
多少	-10467
延至	-10468
维莱	-10469
降格	-10470
aul	-10471
ere	-10472
的一项	-10473
分布於南美洲	-10474
阿尔卑斯大区	-10475
作客	-10476
宋代	-10477
战术	-10478
托夫	-10479
擊退	-10480
的五	-10481
的代	-10482
▁第一	-10483
不清楚	-10484
,2004	-10485
▁1985	-10486
平均降雨量	-10487
Wh	-10488
先進	-10489
女士	-10490
德堡	-10491
打進	-10492
澳门	-10493
遇上	-10494
和文化	-10495
,2000	-10496
ft	-10497
一批	-10498
专员	-10499
交给	-10500
作詞	-10501
俗称	-10502
受邀	-10503
商務	-10504
失踪	-10505
她與	-10506
年又	-10507
德甲	-10508
老师	-10509
變更	-10510
阵亡	-10511
除外	-10512
和日本	-10513
并不是	-10514
這兩個	-10515
PO	-10516
家乡	-10517
專員	-10518
注重	-10519
洛林	-10520
的字	-10521
緊張	-10522
迪亞	-10523
▁ch	-10524
第三甲	-10525
sc	-10526
东海	-10527
牧师	-10528
並獲得	-10529
举行了	-10530
正式的	-10531
美國總統	-10532
可以追溯到	-10533
則被	-10534
哥特	-10535
國籍	-10536
民籍	-10537
湖廣	-10538
產量	-10539
原本的	-10540
LC	-10541
三千	-10542
和北	-10543
少卿	-10544
志願	-10545
繼位	-10546
詢問	-10547
超人	-10548
lic	-10549
clude	-10550
学员	-10551
招生	-10552
捐贈	-10553
緩慢	-10554
迪南	-10555
退伍	-10556
這時	-10557
鳳凰	-10558
itt	-10559
oth	-10560
代表隊	-10561
的特徵	-10562
的美国	-10563
操作系统	-10564
新成立的	-10565
,2023	-10566
世俗	-10567
中日	-10568
墓葬	-10569
密集	-10570
對戰	-10571
後因	-10572
细节	-10573
負面	-10574
足协	-10575
逃跑	-10576
致力於	-10577
▁元	-10578
习惯	-10579
则为	-10580
山顶	-10581
演技	-10582
版權	-10583
睡眠	-10584
黨員	-10585
oss	-10586
漫畫家	-10587
加勒比海	-10588
▁1984	-10589
EV	-10590
MB	-10591
友谊	-10592
后勤	-10593
困境	-10594
在被	-10595
就已	-10596
消灭	-10597
理性	-10598
,14	-10599
在一次	-10600
弗拉基	-10601
西部的	-10602
1926	-10603
江戶時代	-10604
元帥	-10605
力和	-10606
可见	-10607
在日	-10608
孔泰	-10609
弹药	-10610
沿途	-10611
的黑	-10612
國務院	-10613
委员会的	-10614
卯科	-10615
咨询	-10616
情绪	-10617
衰退	-10618
酉科	-10619
项目的	-10620
依次	-10621
奉天	-10622
现今	-10623
界面	-10624
纷纷	-10625
年推出	-10626
弗朗什	-10627
托勒密	-10628
伤害	-10629
國旗	-10630
必然	-10631
摔跤	-10632
改設	-10633
螢幕	-10634
很容易	-10635
精神病	-10636
嘉慶	-10637
德米	-10638
接口	-10639
擊落	-10640
特兰	-10641
稱讚	-10642
行本	-10643
那裡	-10644
103	-10645
制作的	-10646
生产的	-10647
1915	-10648
5"	-10649
书法	-10650
塑造	-10651
巴登	-10652
情節	-10653
懷孕	-10654
拆卸	-10655
策劃	-10656
編組	-10657
臺東	-10658
袁世	-10659
随之	-10660
包括在	-10661
另一種	-10662
年夏天	-10663
生物学	-10664
聯合會	-10665
日本政府	-10666
)4	-10667
大火	-10668
屋苑	-10669
怪物	-10670
支線	-10671
烏斯	-10672
西站	-10673
還要	-10674
决赛中	-10675
杰克逊	-10676
新增本土	-10677
my	-10678
上行	-10679
企图	-10680
德州	-10681
愛的	-10682
手持	-10683
拼音	-10684
新教	-10685
毛利	-10686
硬件	-10687
遺體	-10688
麥可	-10689
▁Ad	-10690
▁1986	-10691
NO	-10692
人称	-10693
初级	-10694
曼聯	-10695
軟件	-10696
運算	-10697
里奥	-10698
10,	-10699
、、、	-10700
常用的	-10701
的内容	-10702
第二名	-10703
通常在	-10704
進入直路後	-10705
中子	-10706
周末	-10707
的精	-10708
认定	-10709
車道	-10710
事件中	-10711
有人口	-10712
现在的	-10713
行政区划	-10714
病毒病疫情	-10715
压缩	-10716
婚禮	-10717
終結	-10718
虚拟	-10719
趨勢	-10720
重複	-10721
陣亡	-10722
魚雷	-10723
的想法	-10724
賽事中	-10725
1907	-10726
位於該國南部	-10727
區的負責管轄	-10728
Twitter	-10729
▁清	-10730
总监	-10731
毒性	-10732
編曲	-10733
语和	-10734
way	-10735
意识到	-10736
消費者	-10737
最後一次	-10738
升格為熱帶	-10739
傳遞	-10740
基部	-10741
屋顶	-10742
日到	-10743
电路	-10744
登山	-10745
赞助	-10746
遺傳	-10747
ble	-10748
▁对于	-10749
在臺灣	-10750
大法官	-10751
1923	-10752
市人民政府	-10753
一片	-10754
並向	-10755
人體	-10756
但未	-10757
兄長	-10758
可达	-10759
季節	-10760
微軟	-10761
牺牲	-10762
阵地	-10763
世紀末	-10764
因此被	-10765
東部的	-10766
派出的	-10767
熱帶風暴	-10768
他说	-10769
后又	-10770
指標	-10771
攻佔	-10772
神奈	-10773
莱昂	-10774
連串	-10775
鬥爭	-10776
探險隊	-10777
的活動	-10778
類型的	-10779
1911	-10780
▁World	-10781
_6	-10782
于此	-10783
出家	-10784
条款	-10785
rop	-10786
安大略	-10787
标志着	-10788
篇文章	-10789
的一個區	-10790
"、	-10791
兼容	-10792
場合	-10793
守備	-10794
富豪	-10795
打开	-10796
為名	-10797
生下	-10798
碳酸	-10799
虛擬	-10800
過後	-10801
郡王	-10802
間接	-10803
发展的	-10804
基本法	-10805
涅茨克	-10806
在此期间	-10807
委员会主席	-10808
—6	-10809
全日	-10810
強的	-10811
正教	-10812
炮塔	-10813
確立	-10814
英军	-10815
50%	-10816
为一个	-10817
得票率	-10818
over	-10819
1。	-10820
傳染	-10821
共青	-10822
击沉	-10823
加冕	-10824
吉亚	-10825
書店	-10826
看作	-10827
种加	-10828
編碼	-10829
都城	-10830
仍然是	-10831
年成為	-10832
5,000	-10833
▁杜	-10834
之人	-10835
星際	-10836
死了	-10837
濃度	-10838
物件	-10839
站內	-10840
罗夫	-10841
蝴蝶	-10842
题材	-10843
马力	-10844
乘車	-10845
争夺	-10846
亮的	-10847
倒塌	-10848
大概	-10849
收费	-10850
水果	-10851
激进	-10852
百分	-10853
裡面	-10854
農場	-10855
集会	-10856
的一段	-10857
而受到	-10858
薩斯州	-10859
没有任何	-10860
在线	-10861
太多	-10862
媽祖	-10863
年均	-10864
水晶	-10865
组长	-10866
终止	-10867
聯會	-10868
”)。	-10869
代表的	-10870
岛的	-10871
电站	-10872
直轄	-10873
罪犯	-10874
閩南	-10875
102	-10876
que	-10877
广西壮	-10878
而闻名	-10879
!》	-10880
一代	-10881
将于	-10882
操控	-10883
某种	-10884
相連	-10885
確診	-10886
设定	-10887
辯論	-10888
送至	-10889
主要有	-10890
发生的	-10891
的父亲	-10892
英國的	-10893
识字率	-10894
開發的	-10895
▁1982	-10896
但她	-10897
個案	-10898
奈良	-10899
數碼	-10900
為第	-10901
獨特	-10902
神聖	-10903
绍兴	-10904
還在	-10905
顺序	-10906
▁一般	-10907
按察使	-10908
TE	-10909
▁东	-10910
已于	-10911
火灾	-10912
火車	-10913
短缺	-10914
站前	-10915
收視率	-10916
革命軍	-10917
日圓	-10918
時被	-10919
村的	-10920
營養	-10921
福斯	-10922
細菌	-10923
致敬	-10924
優惠	-10925
在與	-10926
塔斯	-10927
奖牌	-10928
微分	-10929
把他	-10930
莱斯	-10931
街頭	-10932
該處	-10933
过的	-10934
在同年	-10935
的目的	-10936
紐約市	-10937
二十四年	-10938
▁1987	-10939
silver	-10940
上將	-10941
個別	-10942
参观	-10943
图形	-10944
在天	-10945
地亞	-10946
執法	-10947
封閉	-10948
日元	-10949
澄清	-10950
让他	-10951
近期	-10952
體積	-10953
展示了	-10954
谢尔省	-10955
車站大樓	-10956
為輻鰭魚綱鱸形目	-10957
一套	-10958
上場	-10959
主的	-10960
他將	-10961
冷却	-10962
分部	-10963
座椅	-10964
景觀	-10965
破裂	-10966
貝克	-10967
邊形	-10968
。13	-10969
取消了	-10970
增加到	-10971
iver	-10972
热带风暴	-10973
Microsoft	-10974
▁利	-10975
之家	-10976
交互	-10977
卡的	-10978
囚禁	-10979
奪冠	-10980
巨星	-10981
梅克	-10982
诞生	-10983
貨運	-10984
主要在	-10985
完成的	-10986
类案件	-10987
学士学位	-10988
军长	-10989
和多	-10990
哥華	-10991
壁画	-10992
宽度	-10993
補給	-10994
迪克	-10995
1.4	-10996
ors	-10997
內政部	-10998
很快就	-10999
月正式	-11000
游击队	-11001
。1973	-11002
举人	-11003
商船	-11004
四位	-11005
神圣	-11006
编程	-11007
船员	-11008
適當	-11009
轨电车	-11010
form	-11011
基础设施	-11012
六个	-11013
制品	-11014
市委	-11015
成爲	-11016
撤離	-11017
校方	-11018
水下	-11019
泉州	-11020
的電	-11021
词汇	-11022
ius	-11023
及香港	-11024
波士頓	-11025
系主任	-11026
。1966	-11027
侦察	-11028
傑出	-11029
市內	-11030
拉圭	-11031
斯图	-11032
昔日	-11033
爾頓	-11034
科索	-11035
路面	-11036
車廠	-11037
龍類	-11038
庄為鄰	-11039
Mo	-11040
、9	-11041
他說	-11042
倫斯	-11043
減弱	-11044
物体	-11045
全新的	-11046
纪录片	-11047
ener	-11048
▁Car	-11049
(“	-11050
人为	-11051
期限	-11052
比起	-11053
海盜	-11054
特鲁	-11055
風力	-11056
▁第二	-11057
哲学家	-11058
的主题	-11059
贏得了	-11060
不同的是	-11061
中国国家	-11062
型电力机车	-11063
▁霍	-11064
判断	-11065
局勢	-11066
憤怒	-11067
概率	-11068
盛行	-11069
科特	-11070
觀政	-11071
近的	-11072
长轴	-11073
领先	-11074
▁),	-11075
二十廳	-11076
强大的	-11077
歷史學家	-11078
。1972	-11079
广西壮族自治区	-11080
不安	-11081
停泊	-11082
后卫	-11083
年与	-11084
支线	-11085
斯威	-11086
時刻	-11087
遠征	-11088
For	-11089
}-,	-11090
▁该地	-11091
的成功	-11092
至少有	-11093
陸戰隊	-11094
1904	-11095
阿尔巴尼亚	-11096
include	-11097
而人口密度為每平方千米人	-11098
冒险	-11099
很好	-11100
會面	-11101
讀書	-11102
進軍	-11103
長沙	-11104
▁Ro	-11105
年在位	-11106
淡水魚	-11107
近年來	-11108
魁北克	-11109
ital	-11110
株式會社	-11111
。1953	-11112
月加入中国共产党	-11113
▁加	-11114
動員	-11115
当日	-11116
混血	-11117
玉米	-11118
現存	-11119
選中	-11120
鋼鐵	-11121
名稱為	-11122
在同一	-11123
孙中山	-11124
發展的	-11125
目前的	-11126
相似的	-11127
亞當	-11128
各式	-11129
百貨	-11130
起的	-11131
的一條	-11132
馬英九	-11133
美国总统	-11134
)2	-11135
上以	-11136
为由	-11137
诊断	-11138
读者	-11139
▁as	-11140
="5"	-11141
拉丁美洲	-11142
有所不同	-11143
分店	-11144
大敗	-11145
巡抚	-11146
撤离	-11147
湯姆	-11148
不久後	-11149
其中男	-11150
印度的	-11151
直升机	-11152
被授予	-11153
足球甲	-11154
。1933	-11155
巡迴演唱會	-11156
))	-11157
业余	-11158
宦官	-11159
对比	-11160
政法	-11161
機組	-11162
歷經	-11163
职员	-11164
进军	-11165
主演的	-11166
战役中	-11167
Jo	-11168
中断	-11169
其实	-11170
密歇	-11171
情节	-11172
游擊	-11173
的教	-11174
創作的	-11175
希望能	-11176
only	-11177
平均水平	-11178
▁1983	-11179
光年	-11180
友誼	-11181
同位	-11182
恐懼	-11183
插入	-11184
擔當	-11185
放大	-11186
时刻	-11187
比特	-11188
犧牲	-11189
纪律	-11190
语中	-11191
ico	-11192
密歇根	-11193
控制了	-11194
的比賽	-11195
的資料	-11196
等方面	-11197
编号为	-11198
音樂會	-11199
▁1941	-11200
的一座城市	-11201
OH	-11202
主权	-11203
打出	-11204
散文	-11205
某个	-11206
的半	-11207
站名	-11208
译为	-11209
郵政	-11210
影响力	-11211
总经理	-11212
教科文	-11213
日上映	-11214
這部電影	-11215
▁1937	-11216
Me	-11217
改組	-11218
权威	-11219
格魯	-11220
業餘	-11221
辭去	-11222
了一种	-11223
平台上	-11224
發行了	-11225
。1936	-11226
三层	-11227
實質	-11228
战区	-11229
但最終	-11230
文化和	-11231
ouse	-11232
广播电视	-11233
俘虏	-11234
個性	-11235
科多	-11236
节点	-11237
该片	-11238
路站	-11239
逃離	-11240
都以	-11241
銅鑼	-11242
代表性	-11243
做出了	-11244
分公司	-11245
採用了	-11246
第二百	-11247
負責人	-11248
rans	-11249
與此同時	-11250
义务	-11251
惡化	-11252
是新	-11253
木星	-11254
看台	-11255
腐败	-11256
要素	-11257
还原	-11258
〉。	-11259
中斷	-11260
為該	-11261
相隔	-11262
诺斯	-11263
降至	-11264
Car	-11265
▁One	-11266
国会议员	-11267
物理学家	-11268
阿姆斯特	-11269
1"	-11270
刻有	-11271
南側	-11272
向上	-11273
品種	-11274
哈萨	-11275
唱歌	-11276
才會	-11277
日前	-11278
该剧	-11279
这段	-11280
週末	-11281
▁or	-11282
▁他的	-11283
自己在	-11284
▁Stud	-11285
GM	-11286
之星	-11287
取决	-11288
旗幟	-11289
林的	-11290
的的	-11291
繪入	-11292
这位	-11293
Red	-11294
ner	-11295
次全国	-11296
產生了	-11297
評論家	-11298
通常會	-11299
有期徒刑	-11300
体验	-11301
党派	-11302
分開	-11303
南朝	-11304
品种	-11305
哥本	-11306
容器	-11307
平县	-11308
廢止	-11309
拿到	-11310
推测	-11311
樞機	-11312
維也	-11313
英镑	-11314
見面	-11315
但後來	-11316
例如在	-11317
機器人	-11318
你的	-11319
后续	-11320
少將	-11321
局势	-11322
工党	-11323
已故	-11324
据说	-11325
本的	-11326
灭亡	-11327
禁令	-11328
而其	-11329
另一种	-11330
年之前	-11331
战斗机	-11332
都沒有	-11333
铁道部	-11334
ky	-11335
德和	-11336
老挝	-11337
領銜	-11338
它可以	-11339
ater	-11340
tain	-11341
最古老的	-11342
住了	-11343
只得	-11344
太保	-11345
就業	-11346
开启	-11347
强的	-11348
札幌	-11349
条例	-11350
球衣	-11351
索瓦	-11352
衰落	-11353
贫困	-11354
.5%	-11355
▁Ed	-11356
▁Pr	-11357
活動的	-11358
种加词	-11359
舊金山	-11360
2500	-11361
。1968	-11362
▁'	-11363
三菱	-11364
判处	-11365
所长	-11366
據說	-11367
比尔	-11368
法師	-11369
港的	-11370
獲取	-11371
登基	-11372
米哈	-11373
诸多	-11374
隨之	-11375
副教授	-11376
开发的	-11377
必要的	-11378
1913	-11379
亞洲電視	-11380
总部位于	-11381
的一部份	-11382
。1964	-11383
山峰	-11384
开辟	-11385
无限	-11386
致仕	-11387
赋予	-11388
频繁	-11389
個國家	-11390
前身為	-11391
所謂的	-11392
曾擔任	-11393
1916	-11394
。1927	-11395
Pe	-11396
分隔	-11397
和海	-11398
固体	-11399
在内	-11400
实力	-11401
戶部	-11402
相遇	-11403
輕軌	-11404
鈴木	-11405
院的	-11406
飯店	-11407
以前的	-11408
分別在	-11409
溫哥華	-11410
Se	-11411
上将	-11412
健身	-11413
大軍	-11414
左岸	-11415
急行	-11416
惡魔	-11417
打點	-11418
搭檔	-11419
教友	-11420
某種	-11421
規格	-11422
该地	-11423
107	-11424
是秘魯	-11425
核武器	-11426
转向架	-11427
哥本哈根	-11428
三级	-11429
三重	-11430
五名	-11431
佩尔	-11432
分行	-11433
吸血	-11434
國安	-11435
學科	-11436
悬挂	-11437
探险	-11438
帝国的	-11439
月开始	-11440
独特的	-11441
1909	-11442
工资	-11443
斯理	-11444
薩拉	-11445
补给	-11446
護理	-11447
郊区	-11448
伊利諾	-11449
十二廳	-11450
一首	-11451
上尉	-11452
但有	-11453
反派	-11454
單車	-11455
掌控	-11456
暴動	-11457
沿着	-11458
波多	-11459
缓慢	-11460
評為	-11461
、12	-11462
」),	-11463
了一次	-11464
其主要	-11465
的管理	-11466
年夏季奧林匹克運動會	-11467
交响	-11468
交战	-11469
實踐	-11470
此類	-11471
田徑	-11472
男友	-11473
了大量	-11474
县知县	-11475
德里希	-11476
的弟弟	-11477
较大的	-11478
革命军	-11479
Super	-11480
▁x	-11481
南越	-11482
布羅	-11483
結局	-11484
遺跡	-11485
ney	-11486
▁Or	-11487
弗雷德	-11488
英国的	-11489
地方法院	-11490
卡斯蒂利亚	-11491
是下辖的一个乡镇级行政单位	-11492
不变	-11493
伯里	-11494
前锋	-11495
卡洛	-11496
口罩	-11497
水準	-11498
环球	-11499
行列	-11500
配有	-11501
青铜	-11502
▁中國	-11503
上获得	-11504
人受伤	-11505
微生物	-11506
紀念碑	-11507
野战军	-11508
,2003	-11509
。1932	-11510
北端	-11511
圣殿	-11512
感謝	-11513
有史	-11514
来看	-11515
某一	-11516
留學	-11517
秘鲁	-11518
船上	-11519
魯斯	-11520
在那裡	-11521
时代的	-11522
蔡英文	-11523
起源于	-11524
角色扮演	-11525
景观	-11526
每秒	-11527
纳州	-11528
血統	-11529
诸如	-11530
逃走	-11531
長時間	-11532
注意的是	-11533
。1935	-11534
县的一个城镇	-11535
化物	-11536
并对	-11537
災難	-11538
諾夫	-11539
邏輯	-11540
▁UA	-11541
▁光緒	-11542
半长轴	-11543
厄尔省	-11544
取决于	-11545
在其他	-11546
在第一	-11547
日推出	-11548
的例子	-11549
的同时	-11550
穩定的	-11551
”(),	-11552
繪入地圖	-11553
El	-11554
化成	-11555
降水	-11556
2.2	-11557
收錄於	-11558
的唯一	-11559
阿卜杜	-11560
6000	-11561
获得一枚金牌	-11562
LA	-11563
▁吉	-11564
▁除	-11565
一台	-11566
上诉	-11567
代之	-11568
刑法	-11569
基辅	-11570
大厅	-11571
擊中	-11572
文森	-11573
海口	-11574
港島	-11575
長安	-11576
合併為	-11577
在歐洲	-11578
的特性	-11579
。1977	-11580
一道	-11581
互动	-11582
動態	-11583
名词	-11584
向他	-11585
外科	-11586
并为	-11587
斑點	-11588
替换	-11589
水庫	-11590
現已	-11591
的開	-11592
320	-11593
保守派	-11594
億港元	-11595
哈爾科夫	-11596
Phone	-11597
▁1946	-11598
Ne	-11599
依舊	-11600
六甲	-11601
南洋	-11602
國有	-11603
壽命	-11604
所述	-11605
掉了	-11606
有趣	-11607
諾斯	-11608
较高	-11609
三部曲	-11610
副總統	-11611
统治者	-11612
转移到	-11613
。1928	-11614
(《	-11615
_7	-11616
动员	-11617
她与	-11618
宗旨	-11619
年來	-11620
收取	-11621
活佛	-11622
片尾	-11623
特爾	-11624
空調	-11625
縣市	-11626
背叛	-11627
选民	-11628
ute	-11629
带来的	-11630
為臺灣	-11631
的效果	-11632
二十六年	-11633
下的一个属	-11634
▁Music	-11635
we	-11636
前線	-11637
回國	-11638
水源	-11639
科普	-11640
过于	-11641
▁因為	-11642
年日本	-11643
离心率为	-11644
其中男性为	-11645
乡试	-11646
分級	-11647
划分	-11648
堡的	-11649
女友	-11650
当前	-11651
想像	-11652
拜登	-11653
數值	-11654
日與	-11655
田中	-11656
街区	-11657
边的	-11658
迪亚	-11659
6.5	-11660
武汉市	-11661
每小時	-11662
維也納	-11663
足球會	-11664
遊戲中	-11665
民主進步	-11666
道格拉斯	-11667
高速铁路	-11668
但於	-11669
兩座	-11670
吉士	-11671
回來	-11672
愛國	-11673
指引	-11674
旅程	-11675
策划	-11676
ael	-11677
air	-11678
得到的	-11679
密西西比	-11680
。1965	-11681
GN	-11682
Or	-11683
日向	-11684
維克	-11685
▁Bl	-11686
旧金山	-11687
的名义	-11688
ille	-11689
SD	-11690
人格	-11691
使命	-11692
俄语	-11693
名额	-11694
护照	-11695
签证	-11696
TVB	-11697
政府和	-11698
。1931	-11699
一隻	-11700
傳承	-11701
北側	-11702
寺庙	-11703
急性	-11704
招待	-11705
深海	-11706
渤海	-11707
硝酸	-11708
禮部	-11709
这类	-11710
金的	-11711
net	-11712
參議員	-11713
在一個	-11714
的基礎	-11715
1800	-11716
▁法	-11717
下载	-11718
伺服	-11719
信長	-11720
全家	-11721
写的	-11722
右岸	-11723
此类	-11724
滿洲	-11725
炮台	-11726
短的	-11727
科爾	-11728
赛车	-11729
軍艦	-11730
ino	-11731
▁Br	-11732
不足以	-11733
员外郎	-11734
彰化縣	-11735
;0—6	-11736
。1957	-11737
mp	-11738
专利	-11739
优先	-11740
布罗	-11741
护航	-11742
指向	-11743
曾为	-11744
朝阳	-11745
環繞	-11746
發掘	-11747
臨床	-11748
讓人	-11749
順治	-11750
但沒有	-11751
副局长	-11752
每小时	-11753
約瑟夫	-11754
半长轴为	-11755
工作人員	-11756
UC	-11757
XX	-11758
初次	-11759
富裕	-11760
導師	-11761
山站	-11762
是對	-11763
滅亡	-11764
肿瘤	-11765
财富	-11766
金馬	-11767
陶瓷	-11768
260	-11769
▁Is	-11770
公務員	-11771
1906	-11772
的轨道半长轴为	-11773
位于法国大東部大區	-11774
关联	-11775
司鐸	-11776
家屬	-11777
林业	-11778
詮釋	-11779
认同	-11780
下属的	-11781
二十九年	-11782
立法會議員	-11783
借用	-11784
加油	-11785
受体	-11786
变换	-11787
宫殿	-11788
武田	-11789
王府	-11790
珠江	-11791
竞赛	-11792
網頁	-11793
補助	-11794
公安局	-11795
就讀於	-11796
與美國	-11797
之亂	-11798
代號	-11799
军政	-11800
均由	-11801
基尔	-11802
夺取	-11803
提取	-11804
率兵	-11805
男爵	-11806
監視	-11807
費城	-11808
起点	-11809
马萨	-11810
和中国	-11811
在這個	-11812
公車	-11813
军舰	-11814
刻意	-11815
會計	-11816
權的	-11817
正值	-11818
隱藏	-11819
国防部	-11820
更容易	-11821
理事會	-11822
的小型	-11823
地面車站	-11824
又以	-11825
哈迪	-11826
底質	-11827
水手	-11828
的低	-11829
而他	-11830
胡安	-11831
较小	-11832
遷往	-11833
▁對於	-11834
古建筑	-11835
名士兵	-11836
在此之前	-11837
▁1948	-11838
onlyinclude	-11839
%、	-11840
OK	-11841
也以	-11842
在她	-11843
常規	-11844
担当	-11845
正如	-11846
消化	-11847
發達	-11848
科长	-11849
2.6	-11850
mol	-11851
年擔任	-11852
魚亞目	-11853
EF	-11854
中尉	-11855
机动	-11856
校區	-11857
歐元	-11858
职能	-11859
陰謀	-11860
雅克	-11861
Col	-11862
福克斯	-11863
。1961	-11864
售出	-11865
工黨	-11866
損害	-11867
牡丹	-11868
聚合	-11869
讨伐	-11870
辩论	-11871
遷徙	-11872
錄得	-11873
關聯	-11874
ray	-11875
巡洋艦	-11876
日發售	-11877
清政府	-11878
留下的	-11879
获得男子	-11880
三种	-11881
克力	-11882
拜仁	-11883
里夫	-11884
▁他在	-11885
出现的	-11886
分佈於	-11887
广泛的	-11888
拉丁语	-11889
数学家	-11890
是法國	-11891
的過程	-11892
ka	-11893
▁徐	-11894
以免	-11895
假名	-11896
四军	-11897
地主	-11898
奠基	-11899
奪取	-11900
政务	-11901
文斯	-11902
胡同	-11903
德克萨斯	-11904
六四	-11905
孚日	-11906
德在	-11907
普雷	-11908
中西部	-11909
古斯塔	-11910
引发了	-11911
未來的	-11912
egin	-11913
orth	-11914
年度最佳	-11915
每年平均降雨量	-11916
人之	-11917
外線	-11918
弱的	-11919
的圣	-11920
監禁	-11921
its	-11922
ret	-11923
▁1.	-11924
很可能	-11925
有许多	-11926
常住人口	-11927
廣播公司	-11928
流行音樂	-11929
的重要性	-11930
。1976	-11931
交響	-11932
分手	-11933
搜查	-11934
明清	-11935
治愈	-11936
象棋	-11937
研究室	-11938
▁1979	-11939
马克思主义	-11940
信心	-11941
元老	-11942
反攻	-11943
后因	-11944
啟發	-11945
埋葬	-11946
年所	-11947
开除	-11948
心脏	-11949
松江	-11950
版权	-11951
终身	-11952
车道	-11953
重申	-11954
ero	-11955
但没有	-11956
出身於	-11957
类型为	-11958
小行星带	-11959
普罗旺斯	-11960
羅馬天主教	-11961
LE	-11962
加特	-11963
南韓	-11964
媽媽	-11965
工农	-11966
改组	-11967
月由	-11968
模块	-11969
知州	-11970
科目	-11971
答應	-11972
財團	-11973
加龙省	-11974
都没有	-11975
iversity	-11976
出於	-11977
处罚	-11978
密码	-11979
山路	-11980
弹劾	-11981
民俗	-11982
沉积	-11983
监禁	-11984
較多	-11985
關東	-11986
騎師	-11987
处理器	-11988
幾內亞	-11989
男演員	-11990
的绝对	-11991
配音員	-11992
是烏克蘭的村落	-11993
向外	-11994
市立	-11995
旗帜	-11996
相机	-11997
真空	-11998
追蹤	-11999
限于	-12000
鲁斯	-12001
第一届	-12002
绕太阳	-12003
五千	-12004
华侨	-12005
县和	-12006
号在	-12007
整修	-12008
石灰	-12009
礼部	-12010
等于	-12011
艾莉	-12012
處決	-12013
進展	-12014
ena	-12015
las	-12016
有不少	-12017
歌曲的	-12018
这使得	-12019
。1971	-12020
喪失	-12021
国外	-12022
天水	-12023
奖章	-12024
汽油	-12025
生平	-12026
縮短	-12027
网友	-12028
▁为了	-12029
威斯特	-12030
帶來的	-12031
德国的	-12032
拍攝的	-12033
第三名	-12034
西西里	-12035
年世界盃	-12036
2:	-12037
中路	-12038
住院	-12039
保密	-12040
千葉	-12041
夫特	-12042
歧视	-12043
车型	-12044
保守黨	-12045
的数据	-12046
该小行星	-12047
ement	-12048
▁四	-12049
偶然	-12050
到底	-12051
劇組	-12052
慢性	-12053
物流	-12054
納德	-12055
语音	-12056
les	-12057
ral	-12058
同性恋	-12059
小提琴	-12060
建造了	-12061
的紀錄	-12062
統治者	-12063
較大的	-12064
的基础上	-12065
▁Enter	-12066
集团有限公司	-12067
▁宋	-12068
便宜	-12069
干預	-12070
弗洛	-12071
正好	-12072
潮州	-12073
老闆	-12074
變形	-12075
2.3	-12076
iOS	-12077
布拉格	-12078
每一個	-12079
第四次	-12080
運動的	-12081
▁Group	-12082
下面	-12083
军衔	-12084
同情	-12085
居於	-12086
工事	-12087
巴巴	-12088
液体	-12089
童年	-12090
落後	-12091
队在	-12092
音速	-12093
▁end	-12094
二十五年	-12095
电子游戏	-12096
SE	-12097
iu	-12098
不了	-12099
动态	-12100
只需	-12101
向東	-12102
商标	-12103
围攻	-12104
幼儿	-12105
座的	-12106
德雷	-12107
河川	-12108
由該	-12109
私有	-12110
科隆	-12111
ene	-12112
石家庄	-12113
atch	-12114
科多尔省	-12115
中华人民共和国驻	-12116
巴馬	-12117
獲獎	-12118
納爾	-12119
藝名	-12120
及利亞	-12121
西太平洋	-12122
所辖的一个	-12123
也就	-12124
射程	-12125
尾鰭	-12126
管弦	-12127
米德	-12128
羽球	-12129
都尉	-12130
队友	-12131
阿勒	-12132
陈列	-12133
chn	-12134
时间的	-12135
給事中	-12136
的比赛中	-12137
位於該國東北部	-12138
▁塔	-12139
專利	-12140
強迫	-12141
捐赠	-12142
武漢	-12143
獲頒	-12144
終身	-12145
给他	-12146
途徑	-12147
鑽石	-12148
验证	-12149
中的一	-12150
乒乓球	-12151
卡斯特	-12152
支持的	-12153
的中央	-12154
中南	-12155
乌尔	-12156
医药	-12157
尼拉	-12158
干擾	-12159
很难	-12160
植被	-12161
歌剧	-12162
浓度	-12163
為新	-12164
猛烈	-12165
福尔	-12166
菲尔	-12167
这条	-12168
防線	-12169
135	-12170
▁但是	-12171
原来的	-12172
演出的	-12173
甚至是	-12174
郡太守	-12175
電影節	-12176
▁〈	-12177
代牧	-12178
偵察	-12179
即便	-12180
各方	-12181
回了	-12182
城内	-12183
填海	-12184
多为	-12185
开封	-12186
推迟	-12187
率部	-12188
电压	-12189
號碼	-12190
ham	-12191
的精神	-12192
總部位於	-12193
主體	-12194
協商	-12195
干线	-12196
排序	-12197
李氏	-12198
杰出	-12199
樓梯	-12200
水道	-12201
的機	-12202
繁荣	-12203
财经	-12204
迁移	-12205
這位	-12206
這部	-12207
長崎	-12208
ger	-12209
一些人	-12210
可以是	-12211
学院的	-12212
最小的	-12213
第三代	-12214
▁1981	-12215
▁特	-12216
三級	-12217
反擊	-12218
揭幕	-12219
檢討	-12220
确立	-12221
詹姆	-12222
车次	-12223
辛亥	-12224
運河	-12225
反映了	-12226
可能有	-12227
調查局	-12228
绕太阳运	-12229
。1934	-12230
届全国人大代表	-12231
No	-12232
与之	-12233
也因	-12234
克洛	-12235
兩大	-12236
内亚	-12237
前来	-12238
半年	-12239
有功	-12240
條紋	-12241
橋樑	-12242
翅膀	-12243
回到了	-12244
類似於	-12245
民族主义	-12246
。1929	-12247
SH	-12248
刪除	-12249
宫廷	-12250
平息	-12251
橫跨	-12252
毫无	-12253
沙咀	-12254
百万	-12255
老年	-12256
舞曲	-12257
長者	-12258
高丽	-12259
一定的	-12260
后不久	-12261
埃塞俄	-12262
文化部	-12263
系列賽	-12264
PP	-12265
之际	-12266
共計	-12267
帽子	-12268
瓦解	-12269
科斯	-12270
並開始	-12271
在这个	-12272
有關的	-12273
自由黨	-12274
領導的	-12275
reat	-12276
行政中心为	-12277
绕太阳运转的小行星	-12278
前线	-12279
喀什	-12280
支那	-12281
殺手	-12282
水扁	-12283
汉口	-12284
灵感	-12285
神戶	-12286
红旗	-12287
英屬	-12288
詞彙	-12289
购物	-12290
高句	-12291
出来的	-12292
在接受	-12293
宾夕法	-12294
日公布	-12295
明顯的	-12296
现代化	-12297
的做法	-12298
相對於	-12299
中国政府	-12300
党组书记	-12301
David	-12302
。1969	-12303
是一颗绕太阳运转的小行星	-12304
一中	-12305
制成	-12306
夜间	-12307
大洋	-12308
客量	-12309
對比	-12310
年夏	-12311
強大	-12312
淮南	-12313
漢人	-12314
获奖	-12315
足利	-12316
電流	-12317
中北部	-12318
第一次世界大戰	-12319
"”	-12320
七世	-12321
克和	-12322
夜晚	-12323
家康	-12324
山城	-12325
由其	-12326
線是	-12327
讲话	-12328
转变	-12329
麵包	-12330
▁TV	-12331
▁阿尔	-12332
今天的	-12333
有两个	-12334
獲得第	-12335
Java	-12336
属的一种	-12337
该小行星于	-12338
不詳	-12339
斯皮	-12340
棉花	-12341
比斯	-12342
腓力	-12343
與他	-12344
营养	-12345
起飛	-12346
頭的	-12347
定义为	-12348
演唱会	-12349
的名義	-12350
lect	-12351
by	-12352
▁吳	-12353
出品	-12354
勒姆	-12355
小米	-12356
巴德	-12357
溶解	-12358
煤矿	-12359
網友	-12360
術語	-12361
製的	-12362
關節	-12363
hel	-12364
▁wh	-12365
中扮演	-12366
发言人	-12367
年代初期	-12368
入讀	-12369
建交	-12370
擾動	-12371
率軍	-12372
瑟琳	-12373
維基	-12374
127	-12375
▁後來	-12376
科索沃	-12377
inal	-12378
加拿大的	-12379
路易斯安	-12380
香港電影	-12381
入伍	-12382
剑桥	-12383
合一	-12384
园区	-12385
始祖	-12386
容許	-12387
应急	-12388
德曼	-12389
战败	-12390
格莱	-12391
籃板	-12392
类的	-12393
納斯	-12394
级的	-12395
興起	-12396
选秀	-12397
外圍賽	-12398
邓小平	-12399
ritic	-12400
▁1978	-12401
委員會委員	-12402
沙特阿拉伯	-12403
一郎	-12404
做好	-12405
克勞	-12406
各州	-12407
家鄉	-12408
防控	-12409
他也是	-12410
的湖泊	-12411
醫學院	-12412
夏朗德省	-12413
克里斯蒂安	-12414
▁全	-12415
光譜	-12416
指的	-12417
标题	-12418
榜上	-12419
渴望	-12420
现已	-12421
相接	-12422
算是	-12423
违法	-12424
金星	-12425
金正	-12426
副院长	-12427
庶吉士	-12428
是唯一	-12429
简单的	-12430
中文大學	-12431
納粹德國	-12432
哈萨克斯坦	-12433
委员会副主任	-12434
小行星带小行星	-12435
伊夫	-12436
内存	-12437
意指	-12438
投影	-12439
登錄	-12440
西的	-12441
檢察官	-12442
遭到了	-12443
戰爭期間	-12444
aster	-12445
人口数量为	-12446
棲息在底層水域	-12447
为主小行星带小行星	-12448
1:	-12449
SC	-12450
一時	-12451
友人	-12452
外观	-12453
小巴	-12454
發言	-12455
白天	-12456
簡易	-12457
線路	-12458
隋朝	-12459
年以前	-12460
收錄了	-12461
最後的	-12462
有一名	-12463
能力的	-12464
蛋白質	-12465
1)	-12466
收获	-12467
林斯	-12468
當然	-12469
花費	-12470
领域的	-12471
高加索	-12472
平壤	-12473
执法	-12474
沉没	-12475
2.8	-12476
博士生	-12477
名平民	-12478
拿破崙	-12479
曾担任	-12480
的命令	-12481
而聞名	-12482
馬德里	-12483
COVID	-12484
三等	-12485
不易	-12486
克勒	-12487
克服	-12488
关押	-12489
教導	-12490
看守	-12491
转入	-12492
銅牌	-12493
▁at	-12494
單行本	-12495
年欧洲	-12496
的军事	-12497
的社會	-12498
综合性	-12499
▁1947	-12500
za	-12501
不願	-12502
供电	-12503
子弟	-12504
從小	-12505
成名	-12506
投訴	-12507
柔佛	-12508
毀滅	-12509
莉亞	-12510
被杀	-12511
語音	-12512
躲避	-12513
颁奖	-12514
▁這個	-12515
不列颠	-12516
意識到	-12517
时间内	-12518
电动机	-12519
的一切	-12520
製造商	-12521
▁何	-12522
体重	-12523
全港	-12524
嘉庆	-12525
多涅	-12526
姿態	-12527
安省	-12528
延遲	-12529
恶化	-12530
死的	-12531
浦路	-12532
落在	-12533
賽後	-12534
馬力	-12535
▁因此	-12536
目前已	-12537
第二位	-12538
冬天	-12539
决策	-12540
劳工	-12541
否定	-12542
坐在	-12543
察院	-12544
早於	-12545
正統	-12546
火焰	-12547
萨瓦	-12548
三角洲	-12549
中文版	-12550
交匯處	-12551
年平均	-12552
的同名	-12553
莫里斯	-12554
他就	-12555
办学	-12556
幕後	-12557
引述	-12558
自立	-12559
面包	-12560
女性的	-12561
游泳池	-12562
發表的	-12563
莱茵省	-12564
年區議會選舉	-12565
上台	-12566
南开	-12567
总裁	-12568
摩擦	-12569
日間	-12570
法規	-12571
的王	-12572
纪委	-12573
Com	-12574
、11	-12575
所取代	-12576
其中一个	-12577
占总人口的	-12578
傍晚	-12579
受益	-12580
总管	-12581
瞄準	-12582
轉任	-12583
頒布	-12584
中发现	-12585
几内亚	-12586
占领了	-12587
向西北	-12588
年期间	-12589
▁Love	-12590
。1909	-12591
不像	-12592
克劳	-12593
匹配	-12594
客機	-12595
年为	-12596
树木	-12597
榴彈	-12598
複合	-12599
西貢	-12600
说服	-12601
/10	-12602
arm	-12603
二十四	-12604
罗尼亚	-12605
)6	-12606
利奥	-12607
在与	-12608
壓縮	-12609
未經	-12610
机组	-12611
架构	-12612
權威	-12613
泰晤	-12614
特曼	-12615
耶和	-12616
的思想	-12617
位於該國西北部	-12618
不便	-12619
人有	-12620
形势	-12621
成像	-12622
於中	-12623
歌词	-12624
莎拉	-12625
頂點	-12626
、18	-12627
又稱為	-12628
发源于	-12629
泰晤士	-12630
肯尼迪	-12631
西南接	-12632
1896	-12633
二十八年	-12634
几年	-12635
必需	-12636
总结	-12637
搜尋	-12638
李克	-12639
汉字	-12640
的表	-12641
离婚	-12642
米高	-12643
藝員	-12644
該黨	-12645
ism	-12646
之後在	-12647
创作的	-12648
副市长	-12649
翡翠台	-12650
1903	-12651
位於該國西南部	-12652
▁对	-12653
▁杨	-12654
一班	-12655
大於	-12656
天花	-12657
孤立	-12658
石勒	-12659
金錢	-12660
阿德	-12661
飞船	-12662
任命為	-12663
卢森堡	-12664
或者是	-12665
撞击坑	-12666
董事会	-12667
国家安全	-12668
位于法国新阿基坦大区	-12669
一張	-12670
仪器	-12671
委內	-12672
改以	-12673
清洗	-12674
轉播	-12675
长大	-12676
顺治	-12677
-25	-12678
共青团	-12679
剩下的	-12680
可用于	-12681
的特色	-12682
文物保護	-12683
资本主义	-12684
▁1958	-12685
争论	-12686
午夜	-12687
塔的	-12688
很難	-12689
日子	-12690
练习	-12691
習俗	-12692
119	-12693
750	-12694
Con	-12695
低气压	-12696
白俄罗斯	-12697
Tr	-12698
中型	-12699
伯克	-12700
内斯	-12701
劃分	-12702
博覽	-12703
大英	-12704
官僚	-12705
武術	-12706
無關	-12707
经由	-12708
西山	-12709
進駐	-12710
遠東	-12711
%)、	-12712
1、	-12713
交涉	-12714
内政	-12715
双向	-12716
只會	-12717
她和	-12718
家臣	-12719
效忠	-12720
泰山	-12721
燃油	-12722
爭論	-12723
販賣	-12724
1.7	-12725
了新的	-12726
在世界	-12727
理事長	-12728
記憶體	-12729
青岛市	-12730
Open	-12731
國民革命軍	-12732
奧克西塔尼	-12733
▁索	-12734
了新	-12735
儀器	-12736
水力	-12737
紅磡	-12738
辞去	-12739
逃离	-12740
阮福	-12741
陽光	-12742
con	-12743
iro	-12744
rag	-12745
塞克斯	-12746
打擊率	-12747
還包括	-12748
▁100	-12749
▁that	-12750
4-	-12751
付费	-12752
分治	-12753
占比	-12754
市级	-12755
才被	-12756
月和	-12757
牌照	-12758
确实	-12759
穿着	-12760
纳米	-12761
这两	-12762
380	-12763
了这一	-12764
教育局	-12765
的原始	-12766
的經濟	-12767
第一期	-12768
董事會	-12769
驅逐艦	-12770
AF	-12771
、“	-12772
东站	-12773
县长	-12774
域名	-12775
复合	-12776
年為	-12777
王星	-12778
相望	-12779
督察	-12780
首領	-12781
lin	-12782
▁3.	-12783
瑪麗亞	-12784
马德里	-12785
」(),	-12786
奧克西塔尼大區	-12787
)”	-12788
Je	-12789
击中	-12790
卡普	-12791
在任	-12792
小心	-12793
强迫	-12794
快樂	-12795
是第	-12796
沙皇	-12797
股东	-12798
运算	-12799
追擊	-12800
高清	-12801
活动的	-12802
都察院	-12803
日常生活	-12804
被任命為	-12805
佛罗里达州	-12806
厄瓜	-12807
收视	-12808
救出	-12809
曾與	-12810
永远	-12811
範疇	-12812
蜿蜒	-12813
見證	-12814
330	-12815
_11	-12816
時表示	-12817
總司令	-12818
1901	-12819
国家公园	-12820
_8	-12821
ya	-12822
北大	-12823
政事	-12824
清華	-12825
臺幣	-12826
萊茵	-12827
落實	-12828
7.5	-12829
▁25	-12830
▁an	-12831
总司令	-12832
成功地	-12833
的特征	-12834
衛斯理	-12835
都是在	-12836
是匈牙利	-12837
科下的一个属	-12838
be	-12839
也將	-12840
大賞	-12841
忍者	-12842
水和	-12843
街的	-12844
这也	-12845
预防	-12846
270	-12847
古希腊	-12848
游戏中	-12849
總人口	-12850
族自治州	-12851
團的	-12852
後備	-12853
日及	-12854
格局	-12855
極端	-12856
与中国	-12857
制造商	-12858
宇航员	-12859
有些人	-12860
總統府	-12861
评论家	-12862
開始後	-12863
。1962	-12864
▁山	-12865
损害	-12866
時尚	-12867
王氏	-12868
誉为	-12869
霍爾	-12870
)、(	-12871
ven	-12872
人民的	-12873
出現於	-12874
大學生	-12875
日发现	-12876
的元素	-12877
加泰罗尼亚	-12878
东汉	-12879
九巴	-12880
便會	-12881
城中	-12882
多米	-12883
戰事	-12884
歐陽	-12885
目睹	-12886
科羅	-12887
风景	-12888
_13	-12889
的一份	-12890
起源於	-12891
尤其是在	-12892
中都	-12893
就业	-12894
尺度	-12895
貴州	-12896
較小	-12897
吉他手	-12898
地球的	-12899
政策的	-12900
的教育	-12901
銅鑼灣	-12902
中位	-12903
促成	-12904
停火	-12905
包裝	-12906
哈布	-12907
大战	-12908
我是	-12909
托斯	-12910
扬州	-12911
粉丝	-12912
精確	-12913
費爾	-12914
迁往	-12915
陆地	-12916
也成為	-12917
阿爾巴	-12918
陳水扁	-12919
▁Rec	-12920
白俄羅斯	-12921
魚科的其中一種	-12922
""	-12923
▁Q	-12924
不應	-12925
北區	-12926
奥布	-12927
干预	-12928
流派	-12929
混音	-12930
知的	-12931
玛丽亚	-12932
』,	-12933
一一	-12934
三日	-12935
二千	-12936
先锋	-12937
她被	-12938
德羅	-12939
提示	-12940
焦點	-12941
莱坞	-12942
被殺	-12943
電壓	-12944
▁km	-12945
定義為	-12946
ield	-12947
可以得到	-12948
聯賽冠軍	-12949
伴奏	-12950
冠名	-12951
学和	-12952
少校	-12953
相應	-12954
精确	-12955
船員	-12956
過渡	-12957
存在於	-12958
布里斯	-12959
ring	-12960
国家统计	-12961
總統選舉	-12962
CT	-12963
一邊	-12964
專屬	-12965
彎道	-12966
或称	-12967
曲线	-12968
有四	-12969
瓦兹	-12970
的好	-12971
頻繁	-12972
ett	-12973
接壤的	-12974
▁Live	-12975
街道办事处	-12976
OL	-12977
一書	-12978
主攻	-12979
估算	-12980
傳輸	-12981
充足	-12982
华南	-12983
干扰	-12984
昆虫	-12985
舆论	-12986
%)。	-12987
延伸到	-12988
的建筑	-12989
lack	-12990
鐵路公司	-12991
PD	-12992
中队	-12993
五位	-12994
传奇	-12995
叔叔	-12996
在小	-12997
安市	-12998
巴林	-12999
服用	-13000
甲烷	-13001
百合	-13002
耕地	-13003
连任	-13004
铸币	-13005
馬利	-13006
」,「	-13007
的比例	-13008
作为一个	-13009
。1967	-13010
一说	-13011
为该	-13012
人造	-13013
去除	-13014
巡邏	-13015
體內	-13016
erv	-13017
因斯坦	-13018
在巴黎	-13019
在當地	-13020
瓦兹省	-13021
社会党	-13022
者之一	-13023
自身的	-13024
流域面积	-13025
。1974	-13026
文物保護單位	-13027
▁j	-13028
下台	-13029
兵器	-13030
华为	-13031
巴利	-13032
悠久	-13033
承擔	-13034
搭档	-13035
清军	-13036
燃烧	-13037
率的	-13038
總是	-13039
角的	-13040
选票	-13041
逼近	-13042
魅力	-13043
一开始	-13044
卡洛斯	-13045
父親是	-13046
1897	-13047
Inst	-13048
师范学校	-13049
最高點為	-13050
比利牛斯省	-13051
ations	-13052
一号	-13053
升高	-13054
含义	-13055
噪音	-13056
射線	-13057
星雲	-13058
曼恩	-13059
样本	-13060
欣賞	-13061
相傳	-13062
美丽	-13063
衛冕	-13064
遠離	-13065
门外	-13066
129	-13067
帝國的	-13068
日出戰	-13069
明尼蘇	-13070
的特点	-13071
需要的	-13072
」()。	-13073
,2024	-13074
前面	-13075
北岸	-13076
型号	-13077
塞拉	-13078
山村	-13079
成长	-13080
所作	-13081
极为	-13082
浏览	-13083
激光	-13084
置於	-13085
罷工	-13086
罹患	-13087
麗的	-13088
122	-13089
亚热带	-13090
出身的	-13091
只剩下	-13092
第一座	-13093
年奥运会	-13094
電子遊戲	-13095
委员会主任	-13096
▁史	-13097
了大	-13098
力學	-13099
威力	-13100
季的	-13101
安息	-13102
暢銷	-13103
民居	-13104
水位	-13105
軍在	-13106
ION	-13107
制作人	-13108
總教練	-13109
與日本	-13110
ript	-13111
之久	-13112
之稱	-13113
國鐵	-13114
填詞	-13115
專欄	-13116
干燥	-13117
废弃	-13118
找出	-13119
條目	-13120
美拉	-13121
者為	-13122
通稱	-13123
阿瑟	-13124
點是	-13125
年代起	-13126
自由的	-13127
被取消	-13128
ever	-13129
、、、、	-13130
。1963	-13131
ym	-13132
▁五	-13133
三天	-13134
他因	-13135
并无	-13136
松山	-13137
西至	-13138
赔偿	-13139
fer	-13140
▁民國	-13141
尖沙咀	-13142
检察院	-13143
ision	-13144
篮球运动员	-13145
TT	-13146
了两	-13147
他有	-13148
但這	-13149
在同	-13150
时区	-13151
柔道	-13152
決心	-13153
流感	-13154
浦东	-13155
社的	-13156
紫色	-13157
組建	-13158
綁架	-13159
观念	-13160
解体	-13161
遊樂	-13162
2.7	-13163
嘉義縣	-13164
在欧洲	-13165
日期間	-13166
bert	-13167
碩士學位	-13168
分出	-13169
嘉定	-13170
團長	-13171
帶到	-13172
明白	-13173
衛視	-13174
電梯	-13175
▁英國	-13176
和美國	-13177
在不同	-13178
在当时	-13179
大学生	-13180
為中心	-13181
的大量	-13182
▁Cor	-13183
世界排名	-13184
音樂錄影帶	-13185
他不	-13186
備受	-13187
僧人	-13188
切割	-13189
和黑	-13190
寫成	-13191
投身	-13192
暗殺	-13193
樹林	-13194
的李	-13195
立體	-13196
还将	-13197
里士	-13198
銀牌	-13199
枚金牌	-13200
發現於	-13201
的遊戲	-13202
中国铁路	-13203
国际足联	-13204
分化	-13205
半徑	-13206
她也	-13207
決於	-13208
漏洞	-13209
策騎	-13210
管控	-13211
名人堂	-13212
战争的	-13213
激烈的	-13214
的一支	-13215
广播公司	-13216
最终幻想	-13217
南華	-13218
幼稚	-13219
揭示	-13220
港區	-13221
略有	-13222
网上	-13223
萊塢	-13224
进展	-13225
屏東縣	-13226
▁1966	-13227
▁from	-13228
弗里德里希	-13229
AB	-13230
上限	-13231
四次	-13232
契約	-13233
开业	-13234
新秀	-13235
方针	-13236
沃夫	-13237
流星	-13238
潮流	-13239
狙擊	-13240
礼拜	-13241
芯片	-13242
分之二	-13243
它們的	-13244
年亚洲	-13245
是通过	-13246
也被称为	-13247
印度尼西亞	-13248
acritic	-13249
++	-13250
信件	-13251
帕特	-13252
托爾	-13253
机枪	-13254
比分	-13255
為他	-13256
特種	-13257
瓦夫	-13258
聘請	-13259
边区	-13260
远征	-13261
oon	-13262
▁Pl	-13263
在第二	-13264
的合作	-13265
地区代表	-13266
▁于	-13267
一律	-13268
会计	-13269
城縣	-13270
堡垒	-13271
戰時	-13272
星座	-13273
毛里	-13274
法规	-13275
泰尔	-13276
維拉	-13277
翼龙	-13278
近海	-13279
功能的	-13280
地球上	-13281
是英国	-13282
条件下	-13283
有一定的	-13284
ricon	-13285
經過本地區	-13286
事先	-13287
努尔	-13288
和上	-13289
性地	-13290
情人	-13291
阿曼	-13292
韋爾	-13293
-30	-13294
80%	-13295
isc	-13296
变成了	-13297
的地理	-13298
还可以	-13299
他亦	-13300
你们	-13301
俘虜	-13302
多斯	-13303
廢棄	-13304
提早	-13305
樣本	-13306
氏族	-13307
永安	-13308
法军	-13309
突击	-13310
酋长	-13311
孫中山	-13312
打破了	-13313
最后一次	-13314
gh	-13315
▁武	-13316
傀儡	-13317
和不	-13318
均被	-13319
塞特	-13320
後世	-13321
空袭	-13322
落入	-13323
解剖	-13324
趋势	-13325
的目標	-13326
皇太后	-13327
work	-13328
國際足協	-13329
中国国民党	-13330
获得一枚银牌	-13331
而該地最高點為	-13332
而該地最高點為海拔高度	-13333
光学	-13334
场上	-13335
巨型	-13336
看出	-13337
编入	-13338
面具	-13339
uro	-13340
日成立	-13341
四十二年	-13342
核酸检测	-13343
監察御史	-13344
▁维	-13345
太常	-13346
日照	-13347
樣的	-13348
渦輪	-13349
無效	-13350
罕见	-13351
过了	-13352
IVE	-13353
▁ne	-13354
分配到	-13355
同位素	-13356
接下来	-13357
最终在	-13358
▁Ass	-13359
高等學校	-13360
ution	-13361
▁1901	-13362
政治部主任	-13363
该省份为法国北部内陆省份	-13364
PL	-13365
▁蘇	-13366
偵測	-13367
大于	-13368
失效	-13369
尼德	-13370
布林	-13371
水系	-13372
永康	-13373
相機	-13374
航速	-13375
节奏	-13376
讚賞	-13377
阻礙	-13378
電鐵	-13379
伟大的	-13380
個月後	-13381
古希臘	-13382
安全的	-13383
後不久	-13384
徹斯特	-13385
数量的	-13386
rand	-13387
本屆賽事	-13388
的一個縣	-13389
奇的	-13390
提督	-13391
沼澤	-13392
繁榮	-13393
豪斯	-13394
電路	-13395
(,,	-13396
ars	-13397
▁戰後	-13398
只有在	-13399
女演员	-13400
巴洛克	-13401
的首府	-13402
中層水域	-13403
面积约为	-13404
颗小行星	-13405
▁基	-13406
伯明	-13407
偶爾	-13408
兴起	-13409
外借	-13410
寒冷	-13411
将他	-13412
承包	-13413
是个	-13414
是西	-13415
曲棍	-13416
标识	-13417
沃特	-13418
波德	-13419
清河	-13420
的士	-13421
相鄰	-13422
荣获	-13423
中首次	-13424
則認為	-13425
进入了	-13426
年出版的	-13427
,1999	-13428
足球俱樂部	-13429
▁begin	-13430
该省份为法国西北部	-13431
MD	-13432
一辆	-13433
亮度	-13434
体积	-13435
味道	-13436
宁市	-13437
家長	-13438
把它	-13439
排水	-13440
板块	-13441
海因	-13442
等到	-13443
精選	-13444
自從	-13445
輿論	-13446
高鐵	-13447
uck	-13448
并将其	-13449
收到了	-13450
斯洛文	-13451
由香港	-13452
的區域	-13453
的宗教	-13454
的早期	-13455
1600	-13456
绝大多数	-13457
也都	-13458
出院	-13459
删除	-13460
召回	-13461
天子	-13462
对该	-13463
手指	-13464
效益	-13465
有两	-13466
章程	-13467
艾倫	-13468
转而	-13469
還會	-13470
注意力	-13471
系教授	-13472
维埃纳省	-13473
有机化合物	-13474
清朝政治人物	-13475
yd	-13476
中隊	-13477
了她	-13478
保衛	-13479
傳出	-13480
動詞	-13481
四方	-13482
平日	-13483
所的	-13484
莫里	-13485
该属	-13486
语法	-13487
辛格	-13488
辩护	-13489
主要為	-13490
桃園市	-13491
:,	-13492
Ex	-13493
▁施	-13494
为他	-13495
书店	-13496
亞種	-13497
加来	-13498
威特	-13499
小项	-13500
摔角	-13501
日内	-13502
晶片	-13503
更具	-13504
电机	-13505
續約	-13506
英法	-13507
評級	-13508
ese	-13509
▁之後	-13510
学校的	-13511
為主要	-13512
文化遗产	-13513
的第一個	-13514
Robert	-13515
DJ	-13516
上被	-13517
乐器	-13518
使之	-13519
北極	-13520
吉拉	-13521
和前	-13522
帖木	-13523
廈門	-13524
廣義	-13525
徵召	-13526
懸掛	-13527
支撐	-13528
歇爾	-13529
瓦斯	-13530
编译	-13531
113	-13532
116	-13533
210	-13534
和国家	-13535
固定的	-13536
大地震	-13537
排水量	-13538
蔣中正	-13539
克里米亞	-13540
國會議員	-13541
SU	-13542
▁*	-13543
▁赫	-13544
不管	-13545
之时	-13546
北約	-13547
当晚	-13548
恩的	-13549
獎勵	-13550
美金	-13551
釜山	-13552
1.1	-13553
氧化物	-13554
的自然	-13555
的軍事	-13556
纪念馆	-13557
Bill	-13558
会见	-13559
侍中	-13560
共振	-13561
同行	-13562
否则	-13563
哥拉	-13564
城邦	-13565
歌迷	-13566
現金	-13567
的开	-13568
簽證	-13569
舰艇	-13570
西面	-13571
首支	-13572
▁故事	-13573
▁本作	-13574
不符合	-13575
原來的	-13576
尼克斯	-13577
提高了	-13578
教育家	-13579
無線電	-13580
現代化	-13581
▁was	-13582
學士學位	-13583
Metacritic	-13584
▁康	-13585
上奏	-13586
二八	-13587
其间	-13588
加热	-13589
及第	-13590
土司	-13591
對決	-13592
改装	-13593
施加	-13594
汝拉	-13595
江县	-13596
百老	-13597
苏里	-13598
隨機	-13599
首屆	-13600
114	-13601
发行了	-13602
并获得	-13603
新幹線	-13604
有兩個	-13605
的主力	-13606
的社会	-13607
節目中	-13608
為熱帶淡水魚	-13609
位于法国奥弗涅	-13610
▁;	-13611
▁福	-13612
候补	-13613
塞州	-13614
汉堡	-13615
沉積	-13616
的基	-13617
的子	-13618
的雙	-13619
羅門	-13620
ole	-13621
就已经	-13622
年当选	-13623
的政府	-13624
看起來	-13625
_9	-13626
」「	-13627
嵌入	-13628
景点	-13629
暗中	-13630
某個	-13631
樹木	-13632
蔓延	-13633
osh	-13634
奥斯曼帝国	-13635
以一	-13636
佩里	-13637
出使	-13638
卻被	-13639
報復	-13640
存放	-13641
折返	-13642
渠道	-13643
爱沙	-13644
较少	-13645
追捕	-13646
por	-13647
▁Se	-13648
出生的	-13649
最後在	-13650
的限制	-13651
稳定的	-13652
鯰形目	-13653
▁1939	-13654
下滑	-13655
亞馬	-13656
出血	-13657
刚果	-13658
季軍	-13659
志明	-13660
海灣	-13661
激活	-13662
独特	-13663
發放	-13664
發育	-13665
美人	-13666
高祖	-13667
不同於	-13668
南北朝	-13669
司主事	-13670
控制器	-13671
柴油机	-13672
Oricon	-13673
▁水	-13674
世家	-13675
光滑	-13676
军方	-13677
判處	-13678
奏曲	-13679
女皇	-13680
描写	-13681
損壞	-13682
擊出	-13683
樓宇	-13684
此举	-13685
病患	-13686
的合	-13687
的马	-13688
而上	-13689
至元	-13690
艾哈	-13691
设于	-13692
逃避	-13693
mus	-13694
▁不過	-13695
▁到了	-13696
被用作	-13697
line	-13698
丧生	-13699
书写	-13700
修女	-13701
元璋	-13702
反叛	-13703
否決	-13704
國外	-13705
失业	-13706
属性	-13707
市内	-13708
彈匣	-13709
敗給	-13710
星光	-13711
神像	-13712
给出	-13713
調節	-13714
首長	-13715
90%	-13716
erg	-13717
ior	-13718
▁臺灣	-13719
也開始	-13720
是一首	-13721
活躍於	-13722
的母親	-13723
政协副主席	-13724
是南極洲的山峰	-13725
六名	-13726
冷卻	-13727
参政	-13728
四強	-13729
專科	-13730
拉越	-13731
更在	-13732
總署	-13733
草本	-13734
諷刺	-13735
貸款	-13736
造的	-13737
進球	-13738
鸚鵡	-13739
▁Mc	-13740
安德森	-13741
曾一度	-13742
物理學	-13743
需要在	-13744
1895	-13745
▁System	-13746
▁洛	-13747
不分	-13748
中東	-13749
伦斯	-13750
位元	-13751
應付	-13752
攻破	-13753
是次	-13754
电梯	-13755
的熱	-13756
製品	-13757
2.1	-13758
▁萬曆	-13759
牠們的	-13760
舞台劇	-13761
1898	-13762
3)	-13763
伦堡	-13764
佩戴	-13765
像素	-13766
动工	-13767
哥斯	-13768
日記	-13769
替补	-13770
聯網	-13771
自幼	-13772
追加	-13773
都很	-13774
風雲	-13775
的表演	-13776
內陸	-13777
季节	-13778
宁县	-13779
所致	-13780
支撑	-13781
旁的	-13782
用水	-13783
考生	-13784
露天	-13785
了一场	-13786
已知的	-13787
斯蒂芬	-13788
的一項	-13789
设立了	-13790
委內瑞拉	-13791
文艺复兴	-13792
爱沙尼亚	-13793
音乐学院	-13794
。2025	-13795
号线的地铁	-13796
弗雷德里克	-13797
▁萨	-13798
作爲	-13799
光谱	-13800
奇怪	-13801
奉行	-13802
接納	-13803
正义	-13804
石碑	-13805
米拉	-13806
不列顛	-13807
他曾在	-13808
十字架	-13809
战斗中	-13810
的行動	-13811
ator	-13812
▁Com	-13813
滨海塞纳	-13814
委員會主席	-13815
伊勒	-13816
南區	-13817
影音	-13818
後再	-13819
愤怒	-13820
才有	-13821
拆解	-13822
薩摩	-13823
見於	-13824
開創	-13825
阵容	-13826
▁Go	-13827
加斯加	-13828
吸血鬼	-13829
較高的	-13830
1902	-13831
▁con	-13832
当地居民	-13833
OC	-13834
一小	-13835
出资	-13836
南道	-13837
叙述	-13838
大王	-13839
就要	-13840
拉里	-13841
格罗	-13842
瀏覽	-13843
的文	-13844
科雷	-13845
防护	-13846
_12	-13847
}-、	-13848
也稱為	-13849
近年来	-13850
天文学家	-13851
格鲁吉亚	-13852
阿爾卑斯	-13853
iPhone	-13854
ichael	-13855
付費	-13856
以示	-13857
会有	-13858
大成	-13859
太和	-13860
將此	-13861
广义	-13862
引爆	-13863
擴充	-13864
李登	-13865
爸爸	-13866
环绕	-13867
用法	-13868
端點	-13869
等多	-13870
維新	-13871
赛的	-13872
跳舞	-13873
风速	-13874
及以上	-13875
天文学	-13876
日开通	-13877
蒙特利	-13878
阿尔及	-13879
四分之一	-13880
天府鄉試	-13881
接下来的	-13882
▁1940	-13883
位于法国奧克西塔尼大區	-13884
不详	-13885
乙烯	-13886
你們	-13887
华中	-13888
和安	-13889
國土	-13890
審議	-13891
時裝	-13892
棲性	-13893
滿貫	-13894
艾爾	-13895
译作	-13896
重傷	-13897
阳性	-13898
駐守	-13899
高出	-13900
ula	-13901
▁he	-13902
巴拉圭	-13903
時間內	-13904
最終於	-13905
的一半	-13906
的照片	-13907
纽约时报	-13908
专注	-13909
光學	-13910
拉格	-13911
教材	-13912
构建	-13913
樓高	-13914
流失	-13915
較早	-13916
餘人	-13917
馬位	-13918
145	-13919
▁sp	-13920
了很多	-13921
总决赛	-13922
會導致	-13923
第三季	-13924
萬港元	-13925
中排名第	-13926
肯塔基州	-13927
tainment	-13928
残疾人奥林匹克运动会	-13929
▁–	-13930
信義	-13931
全书	-13932
到場	-13933
加沙	-13934
勇敢	-13935
同胞	-13936
州区	-13937
巨蛋	-13938
总队	-13939
氟化	-13940
泰坦	-13941
溶于	-13942
編成	-13943
艾米	-13944
顶部	-13945
10.	-13946
ull	-13947
▁30	-13948
和香港	-13949
成都市	-13950
ters	-13951
可追溯至	-13952
成为一个	-13953
。1925	-13954
mi	-13955
信託	-13956
偏西	-13957
加大	-13958
回族	-13959
弗莱	-13960
復出	-13961
構想	-13962
湿地	-13963
可分為	-13964
在这里	-13965
年輕的	-13966
描述為	-13967
支球隊	-13968
由美國	-13969
發源自	-13970
的三个	-13971
被选为	-13972
轉移到	-13973
降水量	-13974
ology	-13975
▁1968	-13976
縣負責管轄	-13977
年夏季奥运会	-13978
並對	-13979
僅僅	-13980
剧集	-13981
受命	-13982
城門	-13983
大都	-13984
尼科	-13985
清治	-13986
特工	-13987
经费	-13988
菲爾	-13989
騷擾	-13990
高潮	-13991
大城市	-13992
是否有	-13993
根据地	-13994
的环境	-13995
的首都	-13996
砂拉越	-13997
等地的	-13998
专科学校	-13999
位於香港	-14000
理工学院	-14001
联邦政府	-14002
將其升格為熱帶	-14003
批全国重点文物保护单位	-14004
▁{	-14005
代谢	-14006
兩地	-14007
托洛	-14008
石頭	-14009
芭蕾	-14010
若望	-14011
變動	-14012
邮件	-14013
ita	-14014
古斯特	-14015
家公司	-14016
小時內	-14017
月参加	-14018
机器人	-14019
的男子	-14020
相应的	-14021
聚合物	-14022
至今仍	-14023
。1926	-14024
诺曼底大区	-14025
As	-14026
丹佛	-14027
京城	-14028
修行	-14029
剧团	-14030
及时	-14031
反复	-14032
塔吉	-14033
市和	-14034
远东	-14035
隊在	-14036
bur	-14037
▁Tr	-14038
丹尼爾	-14039
利比亚	-14040
在全国	-14041
為輻鰭魚綱鯰形目	-14042
两层	-14043
后方	-14044
嘻哈	-14045
戰死	-14046
承建	-14047
指派	-14048
書法	-14049
里面	-14050
▁On	-14051
以避免	-14052
帮助下	-14053
戰爭的	-14054
之神	-14055
人以	-14056
传教	-14057
倖存	-14058
尼察	-14059
指标	-14060
採購	-14061
新宿	-14062
未婚	-14063
藩主	-14064
uch	-14065
和一些	-14066
在印度	-14067
法学院	-14068
的两个	-14069
眾議員	-14070
▁天主教	-14071
的支持者	-14072
"-	-14073
上疏	-14074
人体	-14075
保有	-14076
又譯	-14077
奖励	-14078
奥德	-14079
施塔	-14080
海地	-14081
玄宗	-14082
禮拜	-14083
結業	-14084
美式	-14085
認爲	-14086
霸王	-14087
%),	-14088
届中央	-14089
年輕人	-14090
第十八	-14091
1890	-14092
側式月台	-14093
2、	-14094
上班	-14095
信中	-14096
判定	-14097
头部	-14098
总共	-14099
提拔	-14100
教派	-14101
早晨	-14102
極大	-14103
榜首	-14104
江湖	-14105
波的	-14106
說話	-14107
语系	-14108
青衣	-14109
切爾尼	-14110
天然氣	-14111
美术馆	-14112
萬英鎊	-14113
三分之一	-14114
云南等地	-14115
哈布斯堡	-14116
的绝对星等为	-14117
▁長	-14118
中校	-14119
优化	-14120
原版	-14121
四面	-14122
国公	-14123
巴格	-14124
感知	-14125
橡胶	-14126
河东	-14127
洋行	-14128
線性	-14129
萊斯	-14130
違法	-14131
▁这个	-14132
不包括	-14133
产阶级	-14134
另一名	-14135
天然气	-14136
是目前	-14137
最终于	-14138
的比赛	-14139
被列为	-14140
行政鎮區	-14141
▁1944	-14142
主要分布于	-14143
是位於日本	-14144
SR	-14145
了兩	-14146
伯拉	-14147
反击	-14148
埼玉	-14149
增设	-14150
所示	-14151
抓住	-14152
最先	-14153
比克	-14154
羽聯	-14155
非裔	-14156
但仍然	-14157
颗小行星的绝对星等为	-14158
一线	-14159
交替	-14160
公國	-14161
分數	-14162
央视	-14163
字形	-14164
屋邨	-14165
开播	-14166
护卫	-14167
普尔	-14168
维基	-14169
聚焦	-14170
超出	-14171
遗体	-14172
并且在	-14173
每一个	-14174
皮埃尔	-14175
與中國	-14176
美国海军	-14177
超級聯賽	-14178
▁1938	-14179
常务委员会	-14180
3-	-14181
▁蒙	-14182
也要	-14183
全能	-14184
多半	-14185
學界	-14186
射线	-14187
山本	-14188
强化	-14189
明帝	-14190
河和	-14191
登场	-14192
福島	-14193
索尔	-14194
設在	-14195
諸多	-14196
車路	-14197
連鎖	-14198
間諜	-14199
響應	-14200
arg	-14201
inc	-14202
▁sh	-14203
伺服器	-14204
引入了	-14205
是世界	-14206
的计划	-14207
第二任	-14208
面積約	-14209
aint	-14210
irst	-14211
當中包括	-14212
▁1956	-14213
IX	-14214
▁楊	-14215
不起	-14216
功臣	-14217
原创	-14218
名譽	-14219
城门	-14220
度量	-14221
推特	-14222
无需	-14223
月時	-14224
梅爾	-14225
的长	-14226
类别	-14227
被打	-14228
要么	-14229
人口有	-14230
分打點	-14231
平方呎	-14232
每年的	-14233
的方向	-14234
orge	-14235
reet	-14236
中央人民政府	-14237
▁这颗小行星的绝对星等为	-14238
BE	-14239
、「	-14240
上线	-14241
亞視	-14242
介於	-14243
北非	-14244
国籍	-14245
捕食	-14246
擴散	-14247
斯巴	-14248
真主	-14249
运载	-14250
那不	-14251
首演	-14252
四十年	-14253
年電影	-14254
拉丁文	-14255
的活动	-14256
豐富的	-14257
berg	-14258
一提	-14259
不堪	-14260
中级	-14261
中美	-14262
仁宗	-14263
作业	-14264
侄子	-14265
后任	-14266
听到	-14267
喜爱	-14268
德文	-14269
望远	-14270
灾难	-14271
米特	-14272
min	-14273
▁其他	-14274
亞利桑	-14275
其中最	-14276
马来亚	-14277
尼日利亚	-14278
主委	-14279
山頂	-14280
希德	-14281
平反	-14282
战俘	-14283
敦促	-14284
有大	-14285
汤姆	-14286
玩法	-14287
生子	-14288
罗那	-14289
117	-14290
▁本魚	-14291
出版物	-14292
天主教徒	-14293
William	-14294
RE	-14295
td	-14296
一點	-14297
代碼	-14298
刚刚	-14299
力士	-14300
奥多	-14301
官吏	-14302
弗蘭	-14303
愛沙	-14304
明末	-14305
牛奶	-14306
1,8	-14307
▁Wh	-14308
▁世界	-14309
明显的	-14310
栖息在	-14311
系统中	-14312
線車站	-14313
1899	-14314
领导小组	-14315
民主進步黨	-14316
二者	-14317
克特	-14318
兰德	-14319
剥夺	-14320
叔父	-14321
噴射	-14322
在台	-14323
宮廷	-14324
强大	-14325
得獎	-14326
時空	-14327
讚揚	-14328
農村	-14329
选出	-14330
頭角	-14331
MTV	-14332
▁使用	-14333
会导致	-14334
制片人	-14335
取決於	-14336
可使用	-14337
的交通	-14338
等因素	-14339
英联邦	-14340
都是由	-14341
愛沙尼亞	-14342
,1997	-14343
縣的一個行政鎮區	-14344
Ab	-14345
WW	-14346
亞太	-14347
休閒	-14348
住戶	-14349
修缮	-14350
優異	-14351
它由	-14352
差別	-14353
年曾	-14354
总是	-14355
接駁	-14356
斯通	-14357
澤東	-14358
理学	-14359
的安	-14360
行道	-14361
西尔	-14362
见到	-14363
路与	-14364
Par	-14365
▁OS	-14366
▁le	-14367
分別於	-14368
底中層水域	-14369
一是	-14370
休養	-14371
使徒	-14372
取名	-14373
战国	-14374
拉蒙	-14375
會談	-14376
這條	-14377
阿卡	-14378
階層	-14379
露出	-14380
155	-14381
》,《	-14382
,	-14383
的	-14384
▁	-14385
。	-14386
e	-14387
t	-14388
|	-14389
1	-14390
o	-14391
n	-14392
0	-14393
2	-14394
年	-14395
d	-14396
f	-14397
x	-14398
、	-14399
>	-14400
<	-14401
在	-14402
一	-14403
9	-14404
中	-14405
人	-14406
是	-14407
)	-14408
(	-14409
大	-14410
有	-14411
和	-14412
3	-14413
月	-14414
5	-14415
為	-14416
8	-14417
a	-14418
日	-14419
4	-14420
以	-14421
了	-14422
6	-14423
国	-14424
7	-14425
为	-14426
地	-14427
i	-14428
成	-14429
於	-14430
國	-14431
上	-14432
r	-14433
他	-14434
部	-14435
出	-14436
斯	-14437
不	-14438
行	-14439
公	-14440
其	-14441
作	-14442
名	-14443
主	-14444
之	-14445
于	-14446
分	-14447
生	-14448
方	-14449
第	-14450
l	-14451
《	-14452
》	-14453
到	-14454
用	-14455
西	-14456
而	-14457
家	-14458
法	-14459
被	-14460
·	-14461
及	-14462
後	-14463
由	-14464
時	-14465
s	-14466
位	-14467
民	-14468
-	-14469
同	-14470
本	-14471
.	-14472
會	-14473
学	-14474
下	-14475
市	-14476
任	-14477
南	-14478
政	-14479
多	-14480
自	-14481
特	-14482
克	-14483
子	-14484
可	-14485
加	-14486
新	-14487
最	-14488
德	-14489
「	-14490
」	-14491
里	-14492
北	-14493
與	-14494
后	-14495
前	-14496
高	-14497
海	-14498
利	-14499
文	-14500
个	-14501
得	-14502
美	-14503
至	-14504
代	-14505
“	-14506
面	-14507
”	-14508
此	-14509
所	-14510
建	-14511
因	-14512
平	-14513
也	-14514
会	-14515
三	-14516
u	-14517
等	-14518
尔	-14519
度	-14520
事	-14521
入	-14522
學	-14523
道	-14524
:	-14525
物	-14526
要	-14527
立	-14528
时	-14529
個	-14530
;	-14531
表	-14532
工	-14533
h	-14534
拉	-14535
路	-14536
合	-14537
能	-14538
發	-14539
二	-14540
期	-14541
外	-14542
世	-14543
教	-14544
m	-14545
定	-14546
c	-14547
次	-14548
理	-14549
区	-14550
山	-14551
省	-14552
但	-14553
小	-14554
共	-14555
通	-14556
區	-14557
者	-14558
使	-14559
全	-14560
十	-14561
州	-14562
口	-14563
性	-14564
並	-14565
S	-14566
化	-14567
天	-14568
A	-14569
发	-14570
球	-14571
科	-14572
台	-14573
C	-14574
布	-14575
式	-14576
重	-14577
米	-14578
安	-14579
站	-14580
与	-14581
军	-14582
比	-14583
力	-14584
院	-14585
都	-14586
來	-14587
基	-14588
相	-14589
原	-14590
士	-14591
對	-14592
軍	-14593
制	-14594
爾	-14595
这	-14596
司	-14597
起	-14598
水	-14599
正	-14600
格	-14601
動	-14602
開	-14603
英	-14604
长	-14605
T	-14606
長	-14607
府	-14608
尼	-14609
明	-14610
城	-14611
系	-14612
影	-14613
治	-14614
目	-14615
首	-14616
金	-14617
"	-14618
王	-14619
并	-14620
這	-14621
对	-14622
提	-14623
或	-14624
接	-14625
动	-14626
阿	-14627
元	-14628
員	-14629
當	-14630
四	-14631
M	-14632
電	-14633
员	-14634
g	-14635
演	-14636
巴	-14637
东	-14638
开	-14639
来	-14640
列	-14641
改	-14642
如	-14643
女	-14644
間	-14645
常	-14646
現	-14647
向	-14648
過	-14649
進	-14650
量	-14651
港	-14652
林	-14653
然	-14654
賽	-14655
心	-14656
受	-14657
曾	-14658
經	-14659
將	-14660
亞	-14661
東	-14662
意	-14663
交	-14664
内	-14665
亚	-14666
始	-14667
車	-14668
委	-14669
保	-14670
p	-14671
該	-14672
P	-14673
戰	-14674
B	-14675
界	-14676
體	-14677
就	-14678
包	-14679
手	-14680
管	-14681
內	-14682
色	-14683
程	-14684
河	-14685
D	-14686
机	-14687
場	-14688
进	-14689
指	-14690
直	-14691
已	-14692
形	-14693
该	-14694
機	-14695
I	-14696
y	-14697
些	-14698
型	-14699
流	-14700
卡	-14701
星	-14702
音	-14703
过	-14704
间	-14705
社	-14706
集	-14707
车	-14708
现	-14709
持	-14710
更	-14711
经	-14712
設	-14713
将	-14714
示	-14715
马	-14716
品	-14717
隊	-14718
史	-14719
馬	-14720
体	-14721
夫	-14722
展	-14723
校	-14724
业	-14725
線	-14726
战	-14727
E	-14728
身	-14729
稱	-14730
电	-14731
空	-14732
業	-14733
五	-14734
選	-14735
R	-14736
普	-14737
太	-14738
反	-14739
回	-14740
总	-14741
香	-14742
支	-14743
官	-14744
取	-14745
队	-14746
运	-14747
局	-14748
罗	-14749
兩	-14750
數	-14751
造	-14752
情	-14753
各	-14754
N	-14755
種	-14756
设	-14757
古	-14758
她	-14759
命	-14760
当	-14761
种	-14762
活	-14763
赛	-14764
称	-14765
江	-14766
联	-14767
羅	-14768
字	-14769
近	-14770
洲	-14771
b	-14772
即	-14773
蘭	-14774
少	-14775
非	-14776
聯	-14777
数	-14778
L	-14779
著	-14780
信	-14781
它	-14782
研	-14783
解	-14784
達	-14785
片	-14786
曲	-14787
約	-14788
族	-14789
京	-14790
G	-14791
县	-14792
k	-14793
每	-14794
灣	-14795
件	-14796
未	-14797
關	-14798
根	-14799
放	-14800
场	-14801
O	-14802
神	-14803
伊	-14804
两	-14805
朝	-14806
收	-14807
括	-14808
例	-14809
石	-14810
波	-14811
组	-14812
线	-14813
只	-14814
商	-14815
統	-14816
總	-14817
角	-14818
光	-14819
議	-14820
計	-14821
們	-14822
知	-14823
往	-14824
又	-14825
初	-14826
号	-14827
號	-14828
H	-14829
版	-14830
則	-14831
運	-14832
产	-14833
先	-14834
歌	-14835
去	-14836
村	-14837
究	-14838
清	-14839
密	-14840
属	-14841
关	-14842
统	-14843
縣	-14844
樂	-14845
無	-14846
座	-14847
打	-14848
再	-14849
武	-14850
查	-14851
季	-14852
組	-14853
域	-14854
达	-14855
从	-14856
华	-14857
兵	-14858
派	-14859
完	-14860
華	-14861
们	-14862
F	-14863
器	-14864
果	-14865
白	-14866
兰	-14867
六	-14868
镇	-14869
引	-14870
從	-14871
視	-14872
约	-14873
计	-14874
威	-14875
居	-14876
塔	-14877
宣	-14878
福	-14879
且	-14880
段	-14881
令	-14882
屬	-14883
除	-14884
份	-14885
播	-14886
服	-14887
/	-14888
亦	-14889
土	-14890
務	-14891
瓦	-14892
參	-14893
足	-14894
推	-14895
参	-14896
李	-14897
语	-14898
%	-14899
书	-14900
党	-14901
獲	-14902
育	-14903
千	-14904
男	-14905
v	-14906
希	-14907
帝	-14908
议	-14909
修	-14910
案	-14911
結	-14912
存	-14913
务	-14914
速	-14915
舉	-14916
供	-14917
實	-14918
認	-14919
维	-14920
置	-14921
奥	-14922
處	-14923
今	-14924
哈	-14925
增	-14926
門	-14927
雷	-14928
功	-14929
產	-14930
实	-14931
求	-14932
死	-14933
具	-14934
言	-14935
團	-14936
語	-14937
选	-14938
超	-14939
广	-14940
勒	-14941
境	-14942
投	-14943
致	-14944
获	-14945
洛	-14946
八	-14947
導	-14948
助	-14949
另	-14950
宗	-14951
级	-14952
率	-14953
w	-14954
周	-14955
據	-14956
源	-14957
客	-14958
義	-14959
V	-14960
告	-14961
团	-14962
均	-14963
很	-14964
好	-14965
副	-14966
义	-14967
伯	-14968
我	-14969
傳	-14970
印	-14971
吉	-14972
說	-14973
病	-14974
博	-14975
班	-14976
己	-14977
U	-14978
積	-14979
升	-14980
類	-14981
还	-14982
單	-14983
处	-14984
航	-14985
铁	-14986
應	-14987
火	-14988
整	-14989
领	-14990
攻	-14991
排	-14992
維	-14993
花	-14994
故	-14995
劇	-14996
九	-14997
母	-14998
导	-14999
模	-15000
施	-15001
臺	-15002
別	-15003
无	-15004
K	-15005
游	-15006
结	-15007
塞	-15008
萬	-15009
島	-15010
容	-15011
青	-15012
帶	-15013
沙	-15014
技	-15015
俄	-15016
失	-15017
防	-15018
田	-15019
群	-15020
書	-15021
點	-15022
父	-15023
类	-15024
据	-15025
擊	-15026
室	-15027
感	-15028
席	-15029
早	-15030
那	-15031
需	-15032
万	-15033
七	-15034
資	-15035
认	-15036
廣	-15037
W	-15038
登	-15039
領	-15040
纳	-15041
盟	-15042
门	-15043
应	-15044
製	-15045
湖	-15046
易	-15047
專	-15048
警	-15049
落	-15050
越	-15051
半	-15052
说	-15053
報	-15054
張	-15055
百	-15056
皇	-15057
点	-15058
单	-15059
报	-15060
級	-15061
乐	-15062
師	-15063
步	-15064
苏	-15065
變	-15066
z	-15067
黨	-15068
冠	-15069
紀	-15070
恩	-15071
配	-15072
住	-15073
風	-15074
限	-15075
深	-15076
仍	-15077
察	-15078
传	-15079
節	-15080
標	-15081
森	-15082
央	-15083
师	-15084
象	-15085
街	-15086
何	-15087
黑	-15088
畫	-15089
連	-15090
堂	-15091
托	-15092
止	-15093
姆	-15094
沒	-15095
纪	-15096
頭	-15097
考	-15098
积	-15099
奇	-15100
氣	-15101
食	-15102
射	-15103
像	-15104
曼	-15105
留	-15106
控	-15107
记	-15108
決	-15109
甲	-15110
老	-15111
想	-15112
批	-15113
埃	-15114
律	-15115
轉	-15116
视	-15117
權	-15118
低	-15119
—	-15120
便	-15121
川	-15122
术	-15123
鐵	-15124
票	-15125
真	-15126
才	-15127
哥	-15128
條	-15129
牙	-15130
效	-15131
洋	-15132
龍	-15133
降	-15134
木	-15135
奧	-15136
論	-15137
历	-15138
授	-15139
泰	-15140
牌	-15141
移	-15142
夏	-15143
續	-15144
還	-15145
離	-15146
图	-15147
職	-15148
则	-15149
击	-15150
氏	-15151
陸	-15152
着	-15153
迪	-15154
标	-15155
底	-15156
創	-15157
際	-15158
承	-15159
索	-15160
J	-15161
房	-15162
唱	-15163
術	-15164
消	-15165
念	-15166
強	-15167
料	-15168
納	-15169
志	-15170
看	-15171
停	-15172
觀	-15173
变	-15174
革	-15175
论	-15176
景	-15177
别	-15178
調	-15179
际	-15180
素	-15181
圖	-15182
蒙	-15183
资	-15184
决	-15185
息	-15186
专	-15187
附	-15188
权	-15189
没	-15190
_	-15191
康	-15192
典	-15193
述	-15194
职	-15195
遊	-15196
船	-15197
岛	-15198
带	-15199
张	-15200
記	-15201
終	-15202
风	-15203
親	-15204
守	-15205
許	-15206
佛	-15207
把	-15208
调	-15209
瑞	-15210
退	-15211
抗	-15212
澳	-15213
較	-15214
条	-15215
錄	-15216
坦	-15217
獎	-15218
友	-15219
愛	-15220
举	-15221
題	-15222
快	-15223
望	-15224
构	-15225
算	-15226
隨	-15227
转	-15228
办	-15229
思	-15230
辦	-15231
节	-15232
陆	-15233
随	-15234
做	-15235
复	-15236
邦	-15237
候	-15238
擔	-15239
照	-15240
朗	-15241
离	-15242
萨	-15243
精	-15244
划	-15245
依	-15246
堡	-15247
裝	-15248
阳	-15249
左	-15250
編	-15251
見	-15252
突	-15253
汉	-15254
气	-15255
破	-15256
祖	-15257
拿	-15258
督	-15259
丁	-15260
營	-15261
旅	-15262
创	-15263
弗	-15264
歷	-15265
准	-15266
給	-15267
章	-15268
園	-15269
封	-15270
爭	-15271
藏	-15272
护	-15273
試	-15274
協	-15275
歐	-15276
含	-15277
拔	-15278
丹	-15279
争	-15280
蒂	-15281
似	-15282
龙	-15283
值	-15284
网	-15285
富	-15286
延	-15287
質	-15288
莫	-15289
戲	-15290
問	-15291
魚	-15292
圣	-15293
项	-15294
鎮	-15295
莱	-15296
項	-15297
網	-15298
协	-15299
架	-15300
规	-15301
亡	-15302
剧	-15303
欧	-15304
占	-15305
蘇	-15306
負	-15307
装	-15308
梅	-15309
注	-15310
右	-15311
責	-15312
强	-15313
眾	-15314
济	-15315
判	-15316
核	-15317
評	-15318
连	-15319
永	-15320
编	-15321
担	-15322
营	-15323
店	-15324
&	-15325
馆	-15326
岸	-15327
皮	-15328
藝	-15329
規	-15330
切	-15331
走	-15332
必	-15333
给	-15334
邊	-15335
鲁	-15336
兒	-15337
卫	-15338
嘉	-15339
遭	-15340
聖	-15341
陳	-15342
问	-15343
館	-15344
售	-15345
策	-15346
题	-15347
隆	-15348
质	-15349
许	-15350
讓	-15351
樣	-15352
倫	-15353
筑	-15354
头	-15355
劃	-15356
構	-15357
久	-15358
弟	-15359
艾	-15360
署	-15361
野	-15362
黃	-15363
繼	-15364
興	-15365
终	-15366
衛	-15367
役	-15368
備	-15369
诺	-15370
佳	-15371
晚	-15372
尚	-15373
端	-15374
短	-15375
烏	-15376
逐	-15377
郡	-15378
观	-15379
赫	-15380
飛	-15381
極	-15382
送	-15383
唐	-15384
鄉	-15385
雄	-15386
聲	-15387
護	-15388
织	-15389
植	-15390
熱	-15391
续	-15392
医	-15393
菲	-15394
毛	-15395
草	-15396
圍	-15397
什	-15398
油	-15399
般	-15400
耶	-15401
束	-15402
寺	-15403
響	-15404
样	-15405
款	-15406
醫	-15407
备	-15408
環	-15409
輯	-15410
庭	-15411
距	-15412
环	-15413
春	-15414
戏	-15415
范	-15416
伦	-15417
暴	-15418
酒	-15419
摩	-15420
末	-15421
層	-15422
乘	-15423
旗	-15424
X	-15425
亲	-15426
獨	-15427
边	-15428
勝	-15429
薩	-15430
兼	-15431
园	-15432
費	-15433
採	-15434
采	-15435
宁	-15436
漢	-15437
證	-15438
帕	-15439
雙	-15440
殺	-15441
序	-15442
免	-15443
松	-15444
围	-15445
歲	-15446
干	-15447
层	-15448
证	-15449
确	-15450
舰	-15451
罪	-15452
拍	-15453
敗	-15454
籍	-15455
諾	-15456
媒	-15457
寫	-15458
害	-15459
若	-15460
股	-15461
略	-15462
雅	-15463
復	-15464
沃	-15465
征	-15466
婚	-15467
黄	-15468
狀	-15469
追	-15470
评	-15471
农	-15472
予	-15473
透	-15474
{	-15475
頓	-15476
沿	-15477
微	-15478
樓	-15479
秀	-15480
}	-15481
散	-15482
独	-15483
預	-15484
奖	-15485
试	-15486
较	-15487
良	-15488
众	-15489
尾	-15490
背	-15491
差	-15492
乡	-15493
血	-15494
企	-15495
庄	-15496
彈	-15497
準	-15498
儿	-15499
爆	-15500
紅	-15501
善	-15502
见	-15503
援	-15504
毒	-15505
贝	-15506
录	-15507
红	-15508
板	-15509
僅	-15510
继	-15511
甚	-15512
响	-15513
烈	-15514
陽	-15515
屋	-15516
映	-15517
黎	-15518
測	-15519
写	-15520
顯	-15521
兴	-15522
艺	-15523
魯	-15524
救	-15525
双	-15526
津	-15527
確	-15528
几	-15529
濟	-15530
尺	-15531
爱	-15532
桥	-15533
Y	-15534
状	-15535
谷	-15536
喜	-15537
届	-15538
巡	-15539
酸	-15540
執	-15541
請	-15542
屆	-15543
裡	-15544
朱	-15545
乌	-15546
互	-15547
假	-15548
韓	-15549
萊	-15550
舞	-15551
佈	-15552
雖	-15553
織	-15554
库	-15555
热	-15556
宋	-15557
余	-15558
胡	-15559
峰	-15560
秘	-15561
臣	-15562
画	-15563
飞	-15564
声	-15565
杜	-15566
廷	-15567
載	-15568
按	-15569
临	-15570
仅	-15571
午	-15572
卢	-15573
杀	-15574
责	-15575
返	-15576
話	-15577
禁	-15578
描	-15579
测	-15580
習	-15581
费	-15582
幾	-15583
卻	-15584
牛	-15585
材	-15586
築	-15587
盛	-15588
撤	-15589
勢	-15590
拜	-15591
詞	-15592
態	-15593
混	-15594
銀	-15595
骨	-15596
智	-15597
途	-15598
艦	-15599
宮	-15600
戶	-15601
敦	-15602
银	-15603
轄	-15604
皆	-15605
荷	-15606
溫	-15607
穆	-15608
址	-15609
益	-15610
捕	-15611
貝	-15612
岁	-15613
犯	-15614
遠	-15615
價	-15616
极	-15617
楼	-15618
某	-15619
刑	-15620
滿	-15621
童	-15622
坡	-15623
云	-15624
顿	-15625
户	-15626
聚	-15627
玩	-15628
仁	-15629
霍	-15630
翰	-15631
郎	-15632
探	-15633
染	-15634
讀	-15635
遇	-15636
茨	-15637
露	-15638
玉	-15639
充	-15640
炮	-15641
温	-15642
陈	-15643
徒	-15644
壓	-15645
傷	-15646
否	-15647
君	-15648
替	-15649
昌	-15650
係	-15651
吸	-15652
橋	-15653
跟	-15654
私	-15655
夜	-15656
负	-15657
缺	-15658
介	-15659
監	-15660
匹	-15661
休	-15662
娜	-15663
側	-15664
抵	-15665
词	-15666
爵	-15667
刻	-15668
侧	-15669
巨	-15670
難	-15671
冰	-15672
劉	-15673
逃	-15674
激	-15675
幕	-15676
截	-15677
梁	-15678
找	-15679
刊	-15680
佩	-15681
辖	-15682
溪	-15683
刺	-15684
让	-15685
宇	-15686
廳	-15687
斗	-15688
況	-15689
禮	-15690
乎	-15691
你	-15692
显	-15693
侵	-15694
符	-15695
验	-15696
态	-15697
眼	-15698
刘	-15699
岩	-15700
急	-15701
旋	-15702
漫	-15703
唯	-15704
召	-15705
载	-15706
申	-15707
雨	-15708
迫	-15709
聞	-15710
尤	-15711
靠	-15712
佔	-15713
满	-15714
待	-15715
健	-15716
隔	-15717
呼	-15718
槍	-15719
固	-15720
攝	-15721
農	-15722
簡	-15723
穿	-15724
練	-15725
兄	-15726
斷	-15727
優	-15728
驻	-15729
麗	-15730
麥	-15731
翻	-15732
奉	-15733
識	-15734
症	-15735
庫	-15736
殿	-15737
炸	-15738
範	-15739
监	-15740
汽	-15741
默	-15742
涉	-15743
雲	-15744
訊	-15745
飾	-15746
远	-15747
雪	-15748
习	-15749
培	-15750
疑	-15751
擁	-15752
異	-15753
庆	-15754
輕	-15755
廠	-15756
戈	-15757
輪	-15758
洪	-15759
归	-15760
胞	-15761
预	-15762
厂	-15763
执	-15764
耳	-15765
]	-15766
細	-15767
价	-15768
舊	-15769
[	-15770
话	-15771
葉	-15772
呈	-15773
嚴	-15774
妻	-15775
枚	-15776
裁	-15777
操	-15778
毫	-15779
週	-15780
寶	-15781
融	-15782
!	-15783
驗	-15784
'	-15785
遗	-15786
泽	-15787
况	-15788
孩	-15789
絕	-15790
败	-15791
翼	-15792
震	-15793
厅	-15794
歸	-15795
奏	-15796
努	-15797
莉	-15798
避	-15799
榜	-15800
识	-15801
危	-15802
肯	-15803
戴	-15804
須	-15805
请	-15806
压	-15807
魔	-15808
陣	-15809
细	-15810
浙	-15811
殖	-15812
靈	-15813
畢	-15814
泛	-15815
兹	-15816
丽	-15817
柏	-15818
羽	-15819
芬	-15820
篇	-15821
简	-15822
餘	-15823
胜	-15824
付	-15825
断	-15826
坐	-15827
疫	-15828
忠	-15829
啟	-15830
辛	-15831
难	-15832
姓	-15833
弹	-15834
艇	-15835
秋	-15836
输	-15837
阻	-15838
換	-15839
孔	-15840
韩	-15841
杰	-15842
严	-15843
竹	-15844
減	-15845
舍	-15846
鬥	-15847
毕	-15848
桑	-15849
潮	-15850
绝	-15851
闻	-15852
董	-15853
險	-15854
甘	-15855
套	-15856
湾	-15857
频	-15858
慶	-15859
赤	-15860
轮	-15861
叶	-15862
臨	-15863
伍	-15864
徐	-15865
順	-15866
傑	-15867
御	-15868
扎	-15869
億	-15870
=	-15871
惠	-15872
偏	-15873
恐	-15874
瑪	-15875
購	-15876
宫	-15877
拥	-15878
藥	-15879
尽	-15880
榮	-15881
陵	-15882
迷	-15883
药	-15884
迎	-15885
廉	-15886
销	-15887
墨	-15888
卷	-15889
概	-15890
析	-15891
衣	-15892
辑	-15893
泉	-15894
佐	-15895
銷	-15896
階	-15897
氧	-15898
井	-15899
瑟	-15900
墓	-15901
宜	-15902
冷	-15903
奪	-15904
遺	-15905
池	-15906
估	-15907
鰭	-15908
换	-15909
冬	-15910
势	-15911
輸	-15912
釋	-15913
肉	-15914
招	-15915
麦	-15916
檢	-15917
〈	-15918
〉	-15919
魏	-15920
吳	-15921
拒	-15922
渡	-15923
恢	-15924
捷	-15925
享	-15926
跨	-15927
患	-15928
障	-15929
检	-15930
圈	-15931
訓	-15932
俱	-15933
徵	-15934
樹	-15935
齐	-15936
亮	-15937
雜	-15938
顺	-15939
簽	-15940
贵	-15941
劳	-15942
礼	-15943
補	-15944
伐	-15945
哲	-15946
借	-15947
亿	-15948
琴	-15949
+	-15950
町	-15951
租	-15952
養	-15953
妹	-15954
硬	-15955
菌	-15956
伤	-15957
葡	-15958
訪	-15959
杂	-15960
码	-15961
财	-15962
杨	-15963
孙	-15964
宝	-15965
旧	-15966
暗	-15967
盖	-15968
療	-15969
繁	-15970
滑	-15971
隸	-15972
頂	-15973
挥	-15974
鱼	-15975
珠	-15976
漸	-15977
味	-15978
駐	-15979
晋	-15980
裔	-15981
叫	-15982
莎	-15983
坑	-15984
邀	-15985
競	-15986
紐	-15987
奈	-15988
玛	-15989
勞	-15990
遷	-15991
Z	-15992
豪	-15993
倒	-15994
读	-15995
豐	-15996
蓋	-15997
幼	-15998
困	-15999
彩	-16000
昂	-16001
异	-16002
賓	-16003
乾	-16004
蛋	-16005
裂	-16006
併	-16007
崇	-16008
譯	-16009
孫	-16010
詩	-16011
財	-16012
艘	-16013
審	-16014
冲	-16015
优	-16016
輛	-16017
阶	-16018
签	-16019
洞	-16020
盃	-16021
液	-16022
鳥	-16023
俗	-16024
促	-16025
虎	-16026
陷	-16027
乙	-16028
凱	-16029
侯	-16030
纽	-16031
適	-16032
鲜	-16033
迁	-16034
涅	-16035
沉	-16036
零	-16037
衝	-16038
额	-16039
儀	-16040
寧	-16041
碼	-16042
扩	-16043
討	-16044
鐘	-16045
币	-16046
顶	-16047
徽	-16048
圓	-16049
陶	-16050
审	-16051
楊	-16052
錦	-16053
尊	-16054
麻	-16055
络	-16056
覺	-16057
轨	-16058
韦	-16059
j	-16060
鼓	-16061
頻	-16062
允	-16063
疆	-16064
仙	-16065
诗	-16066
藍	-16067
茲	-16068
掌	-16069
彼	-16070
货	-16071
絲	-16072
襲	-16073
浦	-16074
昭	-16075
轻	-16076
弱	-16077
夠	-16078
疾	-16079
牧	-16080
秦	-16081
覆	-16082
盧	-16083
拆	-16084
幅	-16085
粉	-16086
搭	-16087
莊	-16088
启	-16089
吴	-16090
减	-16091
廢	-16092
萄	-16093
阵	-16094
柱	-16095
练	-16096
译	-16097
偶	-16098
亨	-16099
餐	-16100
虽	-16101
振	-16102
浪	-16103
楚	-16104
澤	-16105
补	-16106
壤	-16107
访	-16108
擇	-16109
訴	-16110
树	-16111
貨	-16112
歡	-16113
軌	-16114
講	-16115
函	-16116
谢	-16117
燃	-16118
灵	-16119
揮	-16120
擴	-16121
晉	-16122
爲	-16123
郭	-16124
棲	-16125
伴	-16126
养	-16127
鄭	-16128
汗	-16129
宅	-16130
跑	-16131
幫	-16132
柯	-16133
丘	-16134
宽	-16135
凯	-16136
讲	-16137
祭	-16138
葬	-16139
埔	-16140
旁	-16141
杯	-16142
径	-16143
碑	-16144
挑	-16145
軟	-16146
遍	-16147
額	-16148
乔	-16149
喬	-16150
誌	-16151
购	-16152
却	-16153
宿	-16154
廟	-16155
訂	-16156
課	-16157
貴	-16158
敏	-16159
逝	-16160
腦	-16161
昆	-16162
Q	-16163
荣	-16164
淡	-16165
仔	-16166
训	-16167
鄰	-16168
险	-16169
蔡	-16170
徑	-16171
壁	-16172
累	-16173
綱	-16174
涯	-16175
释	-16176
乃	-16177
勇	-16178
袭	-16179
摄	-16180
侍	-16181
鮮	-16182
丰	-16183
殊	-16184
獻	-16185
謝	-16186
遣	-16187
敵	-16188
幸	-16189
棒	-16190
宾	-16191
?	-16192
答	-16193
伸	-16194
叛	-16195
妮	-16196
孟	-16197
赴	-16198
曹	-16199
钟	-16200
糖	-16201
械	-16202
亂	-16203
鏡	-16204
倍	-16205
够	-16206
沈	-16207
騎	-16208
衡	-16209
灰	-16210
顧	-16211
–	-16212
菜	-16213
談	-16214
厚	-16215
寬	-16216
姐	-16217
幣	-16218
幻	-16219
願	-16220
藤	-16221
赵	-16222
雕	-16223
献	-16224
珍	-16225
敬	-16226
績	-16227
枪	-16228
炎	-16229
针	-16230
辆	-16231
折	-16232
匈	-16233
聽	-16234
须	-16235
隶	-16236
箭	-16237
敌	-16238
損	-16239
韋	-16240
懷	-16241
慈	-16242
奴	-16243
跳	-16244
铜	-16245
宪	-16246
綠	-16247
橫	-16248
慢	-16249
损	-16250
句	-16251
脈	-16252
汇	-16253
朋	-16254
靖	-16255
熙	-16256
惡	-16257
毁	-16258
锦	-16259
伏	-16260
晶	-16261
滨	-16262
仪	-16263
尋	-16264
帮	-16265
憲	-16266
础	-16267
谋	-16268
适	-16269
迅	-16270
盤	-16271
么	-16272
讷	-16273
誤	-16274
堅	-16275
泳	-16276
诸	-16277
祥	-16278
複	-16279
暫	-16280
°	-16281
夺	-16282
桃	-16283
赞	-16284
仰	-16285
撒	-16286
软	-16287
滅	-16288
齊	-16289
諸	-16290
疗	-16291
竞	-16292
颗	-16293
賞	-16294
撞	-16295
块	-16296
琳	-16297
厄	-16298
茶	-16299
孝	-16300
渐	-16301
措	-16302
遂	-16303
針	-16304
買	-16305
頒	-16306
趣	-16307
賣	-16308
凡	-16309
熟	-16310
乱	-16311
旺	-16312
磁	-16313
紫	-16314
岡	-16315
尖	-16316
罕	-16317
择	-16318
刀	-16319
饰	-16320
潘	-16321
柴	-16322
毀	-16323
塘	-16324
郑	-16325
辽	-16326
晨	-16327
诉	-16328
壞	-16329
繪	-16330
緣	-16331
番	-16332
瓜	-16333
乏	-16334
彭	-16335
秒	-16336
剛	-16337
勤	-16338
废	-16339
腳	-16340
緊	-16341
鹿	-16342
泊	-16343
梯	-16344
庙	-16345
矿	-16346
讨	-16347
詹	-16348
苦	-16349
夢	-16350
慕	-16351
葛	-16352
塑	-16353
凌	-16354
錢	-16355
浮	-16356
脱	-16357
钱	-16358
苗	-16359
贡	-16360
棄	-16361
縮	-16362
謀	-16363
怀	-16364
圆	-16365
屏	-16366
骑	-16367
坎	-16368
燕	-16369
撰	-16370
碳	-16371
柳	-16372
脫	-16373
輻	-16374
贏	-16375
賴	-16376
掉	-16377
綫	-16378
坚	-16379
痛	-16380
曆	-16381
鬼	-16382
杭	-16383
腹	-16384
吃	-16385
锡	-16386
泥	-16387
诊	-16388
駛	-16389
隻	-16390
愿	-16391
藩	-16392
儘	-16393
藉	-16394
隧	-16395
熊	-16396
潜	-16397
輔	-16398
灭	-16399
陕	-16400
缩	-16401
搜	-16402
桂	-16403
觉	-16404
谈	-16405
鸟	-16406
乳	-16407
贸	-16408
觸	-16409
剂	-16410
卿	-16411
粒	-16412
q	-16413
娛	-16414
插	-16415
勃	-16416
紧	-16417
杉	-16418
怪	-16419
欢	-16420
捐	-16421
『	-16422
』	-16423
祝	-16424
恒	-16425
墙	-16426
喀	-16427
檔	-16428
甸	-16429
臘	-16430
旨	-16431
腊	-16432
齒	-16433
恆	-16434
犹	-16435
幹	-16436
芝	-16437
麼	-16438
床	-16439
屯	-16440
搬	-16441
辭	-16442
绍	-16443
拓	-16444
坊	-16445
买	-16446
坏	-16447
崎	-16448
旦	-16449
畔	-16450
慧	-16451
揚	-16452
契	-16453
邻	-16454
棋	-16455
既	-16456
绿	-16457
潛	-16458
扬	-16459
循	-16460
閉	-16461
蛇	-16462
剩	-16463
袖	-16464
听	-16465
俊	-16466
擎	-16467
弘	-16468
洗	-16469
芳	-16470
税	-16471
戒	-16472
陰	-16473
錯	-16474
绕	-16475
圳	-16476
牠	-16477
粹	-16478
驱	-16479
礎	-16480
綜	-16481
订	-16482
卓	-16483
污	-16484
闭	-16485
貢	-16486
箱	-16487
貿	-16488
顆	-16489
婦	-16490
筆	-16491
玻	-16492
斑	-16493
仲	-16494
顾	-16495
综	-16496
暂	-16497
尉	-16498
塊	-16499
亭	-16500
宙	-16501
钢	-16502
穩	-16503
盐	-16504
扮	-16505
偉	-16506
壽	-16507
盡	-16508
羊	-16509
劍	-16510
卑	-16511
宏	-16512
焦	-16513
蓝	-16514
靜	-16515
戀	-16516
蟲	-16517
串	-16518
疏	-16519
寄	-16520
舒	-16521
横	-16522
霸	-16523
迈	-16524
紹	-16525
妇	-16526
郊	-16527
螺	-16528
赖	-16529
趙	-16530
鋼	-16531
刚	-16532
券	-16533
玄	-16534
鳳	-16535
閣	-16536
误	-16537
丝	-16538
溶	-16539
絡	-16540
残	-16541
災	-16542
盘	-16543
緒	-16544
鼠	-16545
冊	-16546
逊	-16547
弃	-16548
册	-16549
違	-16550
妃	-16551
砲	-16552
仿	-16553
揭	-16554
耀	-16555
衰	-16556
笑	-16557
巧	-16558
荒	-16559
课	-16560
抽	-16561
誉	-16562
吕	-16563
燈	-16564
煤	-16565
咸	-16566
叔	-16567
彰	-16568
恶	-16569
盾	-16570
岳	-16571
迴	-16572
遜	-16573
脑	-16574
窗	-16575
浩	-16576
俘	-16577
紙	-16578
聘	-16579
丈	-16580
稿	-16581
衍	-16582
填	-16583
譽	-16584
脂	-16585
嫌	-16586
濱	-16587
慮	-16588
耗	-16589
驅	-16590
割	-16591
廈	-16592
廊	-16593
阴	-16594
翁	-16595
镜	-16596
轴	-16597
崔	-16598
错	-16599
冒	-16600
匯	-16601
稳	-16602
賢	-16603
猶	-16604
齡	-16605
輝	-16606
寻	-16607
迹	-16608
茂	-16609
蓮	-16610
夷	-16611
辞	-16612
赢	-16613
袁	-16614
逮	-16615
丙	-16616
剑	-16617
湯	-16618
僧	-16619
～	-16620
怒	-16621
胎	-16622
辅	-16623
駕	-16624
籃	-16625
覽	-16626
纸	-16627
阪	-16628
悉	-16629
膜	-16630
灾	-16631
肥	-16632
擬	-16633
枝	-16634
狂	-16635
壇	-16636
挪	-16637
邮	-16638
键	-16639
純	-16640
缘	-16641
邨	-16642
怖	-16643
賀	-16644
颱	-16645
礦	-16646
欣	-16647
卜	-16648
遵	-16649
吾	-16650
裕	-16651
獄	-16652
柔	-16653
阮	-16654
虫	-16655
拳	-16656
绘	-16657
脉	-16658
斜	-16659
錫	-16660
燒	-16661
豆	-16662
绩	-16663
翌	-16664
寸	-16665
劑	-16666
碎	-16667
叉	-16668
倉	-16669
淮	-16670
岭	-16671
顏	-16672
垂	-16673
緯	-16674
押	-16675
珊	-16676
虛	-16677
隱	-16678
静	-16679
肺	-16680
储	-16681
吨	-16682
憶	-16683
寨	-16684
寿	-16685
叙	-16686
é	-16687
籌	-16688
孤	-16689
殘	-16690
銅	-16691
呎	-16692
纵	-16693
拟	-16694
灌	-16695
涵	-16696
稅	-16697
狗	-16698
旬	-16699
歇	-16700
屠	-16701
紋	-16702
沟	-16703
阁	-16704
握	-16705
刷	-16706
贊	-16707
欲	-16708
卵	-16709
憑	-16710
壘	-16711
獵	-16712
狄	-16713
触	-16714
峡	-16715
璃	-16716
芒	-16717
逆	-16718
癌	-16719
档	-16720
添	-16721
姻	-16722
肃	-16723
傅	-16724
仇	-16725
吐	-16726
笔	-16727
脊	-16728
貌	-16729
陀	-16730
酶	-16731
祀	-16732
飲	-16733
逢	-16734
蔣	-16735
贈	-16736
魂	-16737
鹽	-16738
稍	-16739
胸	-16740
厘	-16741
吏	-16742
嶼	-16743
獸	-16744
驚	-16745
贾	-16746
狱	-16747
牆	-16748
跡	-16749
儒	-16750
寒	-16751
繞	-16752
郵	-16753
堆	-16754
违	-16755
卒	-16756
醒	-16757
扶	-16758
凤	-16759
夕	-16760
鋒	-16761
辰	-16762
衔	-16763
湘	-16764
偷	-16765
颁	-16766
奎	-16767
薄	-16768
雌	-16769
鼻	-16770
緩	-16771
冯	-16772
轟	-16773
呂	-16774
腐	-16775
斤	-16776
琉	-16777
虑	-16778
蝶	-16779
览	-16780
氯	-16781
肖	-16782
雀	-16783
惟	-16784
隐	-16785
茵	-16786
蒸	-16787
磨	-16788
鎖	-16789
讚	-16790
鍵	-16791
讯	-16792
硫	-16793
婆	-16794
劫	-16795
娃	-16796
掘	-16797
勋	-16798
貫	-16799
弦	-16800
潭	-16801
淘	-16802
賈	-16803
嗣	-16804
儲	-16805
敘	-16806
坪	-16807
凝	-16808
抑	-16809
筹	-16810
翠	-16811
忍	-16812
缓	-16813
恰	-16814
忽	-16815
銜	-16816
堪	-16817
绪	-16818
苑	-16819
歧	-16820
誠	-16821
擾	-16822
醇	-16823
篮	-16824
烟	-16825
譜	-16826
缅	-16827
汪	-16828
卖	-16829
虚	-16830
蕭	-16831
猛	-16832
邓	-16833
鄂	-16834
肌	-16835
兆	-16836
株	-16837
摧	-16838
姊	-16839
託	-16840
縱	-16841
勳	-16842
狼	-16843
矩	-16844
锋	-16845
邁	-16846
颜	-16847
嘴	-16848
敢	-16849
誕	-16850
嶺	-16851
娘	-16852
拖	-16853
鄧	-16854
脅	-16855
殼	-16856
傾	-16857
巢	-16858
媽	-16859
厦	-16860
纯	-16861
抓	-16862
泡	-16863
崩	-16864
倡	-16865
勵	-16866
逼	-16867
姚	-16868
奶	-16869
祠	-16870
梦	-16871
詢	-16872
軸	-16873
粗	-16874
烧	-16875
悲	-16876
溯	-16877
栽	-16878
貓	-16879
薛	-16880
忙	-16881
犬	-16882
罰	-16883
寓	-16884
龄	-16885
診	-16886
紛	-16887
陪	-16888
拼	-16889
埋	-16890
脚	-16891
註	-16892
募	-16893
奔	-16894
灯	-16895
抚	-16896
伟	-16897
愈	-16898
抱	-16899
珀	-16900
粵	-16901
盜	-16902
拘	-16903
铺	-16904
屈	-16905
苯	-16906
偵	-16907
棘	-16908
頁	-16909
砂	-16910
吹	-16911
斐	-16912
谱	-16913
躍	-16914
椎	-16915
礁	-16916
獅	-16917
汰	-16918
峽	-16919
巫	-16920
汤	-16921
胶	-16922
驶	-16923
汀	-16924
礙	-16925
謂	-16926
削	-16927
挖	-16928
咖	-16929
寮	-16930
伙	-16931
祿	-16932
氢	-16933
嫁	-16934
稻	-16935
詳	-16936
胺	-16937
冈	-16938
蹈	-16939
酷	-16940
喪	-16941
卸	-16942
宛	-16943
孕	-16944
暖	-16945
蕾	-16946
盆	-16947
驾	-16948
魁	-16949
雇	-16950
仕	-16951
牵	-16952
硕	-16953
翅	-16954
濃	-16955
翔	-16956
挂	-16957
’	-16958
岗	-16959
圭	-16960
萧	-16961
妙	-16962
怕	-16963
矛	-16964
纹	-16965
尹	-16966
恭	-16967
淺	-16968
辨	-16969
剪	-16970
髮	-16971
虹	-16972
姬	-16973
碧	-16974
坛	-16975
漁	-16976
吞	-16977
耐	-16978
貼	-16979
朴	-16980
催	-16981
袋	-16982
煙	-16983
滕	-16984
丞	-16985
裏	-16986
啡	-16987
馮	-16988
鼎	-16989
吧	-16990
坂	-16991
碟	-16992
链	-16993
迦	-16994
豫	-16995
滾	-16996
幽	-16997
氨	-16998
閱	-16999
甫	-17000
扁	-17001
碩	-17002
粮	-17003
─	-17004
伽	-17005
披	-17006
猪	-17007
×	-17008
杆	-17009
栖	-17010
蓬	-17011
嘗	-17012
扣	-17013
膠	-17014
齿	-17015
胁	-17016
禦	-17017
拱	-17018
腔	-17019
鯉	-17020
襄	-17021
赠	-17022
宰	-17023
棕	-17024
睡	-17025
蛛	-17026
湿	-17027
褐	-17028
贯	-17029
汝	-17030
丸	-17031
忘	-17032
掛	-17033
晓	-17034
雍	-17035
・	-17036
暨	-17037
邑	-17038
溝	-17039
麟	-17040
冕	-17041
札	-17042
緬	-17043
彻	-17044
枢	-17045
斥	-17046
丑	-17047
倾	-17048
舟	-17049
壮	-17050
腺	-17051
隋	-17052
姜	-17053
棉	-17054
邪	-17055
毅	-17056
薪	-17057
囊	-17058
烯	-17059
坝	-17060
蒋	-17061
掠	-17062
掩	-17063
罚	-17064
撫	-17065
陨	-17066
搖	-17067
沖	-17068
廖	-17069
飯	-17070
仓	-17071
框	-17072
*	-17073
耕	-17074
蜜	-17075
徹	-17076
穴	-17077
擅	-17078
繫	-17079
菊	-17080
蜂	-17081
曰	-17082
猎	-17083
禄	-17084
励	-17085
屍	-17086
漠	-17087
漏	-17088
丧	-17089
渠	-17090
賜	-17091
忆	-17092
吻	-17093
凭	-17094
帆	-17095
竟	-17096
涌	-17097
贤	-17098
貞	-17099
鷹	-17100
懸	-17101
飓	-17102
腿	-17103
噴	-17104
谓	-17105
烷	-17106
滩	-17107
蹤	-17108
悬	-17109
鲍	-17110
姑	-17111
稀	-17112
雞	-17113
囚	-17114
彌	-17115
贫	-17116
鑑	-17117
茅	-17118
堤	-17119
冀	-17120
潔	-17121
販	-17122
帽	-17123
巷	-17124
逻	-17125
~	-17126
慎	-17127
誓	-17128
龜	-17129
饮	-17130
哪	-17131
遲	-17132
遞	-17133
肢	-17134
秩	-17135
趕	-17136
‘	-17137
诚	-17138
邱	-17139
锁	-17140
搶	-17141
鉴	-17142
腓	-17143
踏	-17144
盗	-17145
姿	-17146
毗	-17147
鍾	-17148
淑	-17149
贺	-17150
腾	-17151
恋	-17152
赏	-17153
递	-17154
宴	-17155
辯	-17156
纷	-17157
瓶	-17158
鴻	-17159
澄	-17160
辩	-17161
俠	-17162
舌	-17163
慣	-17164
鸡	-17165
桌	-17166
笼	-17167
跃	-17168
藻	-17169
麵	-17170
碰	-17171
沼	-17172
亥	-17173
彎	-17174
炭	-17175
罩	-17176
邵	-17177
阅	-17178
详	-17179
赐	-17180
逸	-17181
薇	-17182
轰	-17183
豹	-17184
帅	-17185
爪	-17186
歉	-17187
磷	-17188
尿	-17189
罷	-17190
劣	-17191
页	-17192
庶	-17193
崖	-17194
龐	-17195
惊	-17196
椅	-17197
梨	-17198
橄	-17199
曉	-17200
钦	-17201
踪	-17202
磯	-17203
纲	-17204
奠	-17205
昇	-17206
牲	-17207
甜	-17208
栗	-17209
肝	-17210
喇	-17211
逾	-17212
娱	-17213
柬	-17214
臂	-17215
惜	-17216
豬	-17217
庇	-17218
蹟	-17219
娶	-17220
弓	-17221
铸	-17222
矮	-17223
沪	-17224
窄	-17225
祈	-17226
瘤	-17227
庚	-17228
弄	-17229
怡	-17230
銘	-17231
阔	-17232
氟	-17233
抄	-17234
厝	-17235
扭	-17236
桓	-17237
遮	-17238
浸	-17239
迟	-17240
慰	-17241
吊	-17242
扰	-17243
恨	-17244
玲	-17245
蒲	-17246
哀	-17247
辉	-17248
丛	-17249
償	-17250
梵	-17251
噸	-17252
润	-17253
诞	-17254
芭	-17255
琪	-17256
碍	-17257
樞	-17258
竣	-17259
蜀	-17260
鳴	-17261
薦	-17262
淨	-17263
壯	-17264
赶	-17265
厥	-17266
憂	-17267
肩	-17268
鈴	-17269
跌	-17270
眠	-17271
芙	-17272
罢	-17273
欄	-17274
勘	-17275
噶	-17276
葵	-17277
疊	-17278
摔	-17279
賦	-17280
帥	-17281
槽	-17282
蓄	-17283
橡	-17284
嫩	-17285
貧	-17286
砖	-17287
霞	-17288
猜	-17289
赋	-17290
莲	-17291
辟	-17292
繩	-17293
臉	-17294
戊	-17295
欽	-17296
氮	-17297
筒	-17298
糧	-17299
悠	-17300
臟	-17301
浅	-17302
诏	-17303
舱	-17304
询	-17305
尸	-17306
盈	-17307
喷	-17308
贴	-17309
朵	-17310
旱	-17311
腰	-17312
敲	-17313
鮑	-17314
债	-17315
尝	-17316
臀	-17317
澎	-17318
瓷	-17319
欠	-17320
抢	-17321
兽	-17322
伪	-17323
摇	-17324
灘	-17325
掃	-17326
潤	-17327
爬	-17328
扇	-17329
攜	-17330
汶	-17331
壳	-17332
棟	-17333
酮	-17334
頸	-17335
闽	-17336
駁	-17337
彥	-17338
閩	-17339
滋	-17340
塌	-17341
閃	-17342
閘	-17343
擺	-17344
祐	-17345
凸	-17346
弥	-17347
绥	-17348
忌	-17349
趨	-17350
亩	-17351
贞	-17352
帳	-17353
籲	-17354
趁	-17355
殷	-17356
茄	-17357
桐	-17358
屿	-17359
浓	-17360
徙	-17361
崙	-17362
勸	-17363
履	-17364
嵌	-17365
躲	-17366
酯	-17367
濕	-17368
寇	-17369
猫	-17370
搞	-17371
駒	-17372
偽	-17373
霧	-17374
棚	-17375
禧	-17376
滚	-17377
睛	-17378
琼	-17379
捉	-17380
辱	-17381
廂	-17382
荐	-17383
怎	-17384
肇	-17385
酋	-17386
鹰	-17387
夥	-17388
缸	-17389
挺	-17390
妖	-17391
禪	-17392
裸	-17393
牽	-17394
偿	-17395
焚	-17396
帖	-17397
柄	-17398
妥	-17399
欺	-17400
蜥	-17401
債	-17402
闊	-17403
瑜	-17404
勁	-17405
栏	-17406
菩	-17407
蕃	-17408
仑	-17409
昏	-17410
鞋	-17411
喝	-17412
蟹	-17413
僚	-17414
庞	-17415
侨	-17416
攀	-17417
桿	-17418
昔	-17419
戌	-17420
氫	-17421
蝠	-17422
携	-17423
悼	-17424
畜	-17425
凰	-17426
α	-17427
漂	-17428
痕	-17429
糕	-17430
怨	-17431
喻	-17432
彦	-17433
厢	-17434
渔	-17435
鱸	-17436
櫻	-17437
爐	-17438
孚	-17439
阜	-17440
頗	-17441
庸	-17442
惯	-17443
踢	-17444
黛	-17445
晴	-17446
鯰	-17447
炳	-17448
遼	-17449
匠	-17450
→	-17451
塗	-17452
侦	-17453
韻	-17454
洁	-17455
涂	-17456
矶	-17457
諮	-17458
坤	-17459
醉	-17460
稣	-17461
净	-17462
菱	-17463
騰	-17464
猴	-17465
叠	-17466
‧	-17467
譚	-17468
虐	-17469
郁	-17470
擦	-17471
ー	-17472
軒	-17473
盒	-17474
佑	-17475
兔	-17476
喉	-17477
艙	-17478
碱	-17479
の	-17480
蛙	-17481
荃	-17482
劝	-17483
唇	-17484
狐	-17485
凉	-17486
鬆	-17487
匪	-17488
鑽	-17489
哺	-17490
熔	-17491
蘋	-17492
畏	-17493
旭	-17494
悟	-17495
眉	-17496
裴	-17497
詔	-17498
壬	-17499
麓	-17500
劾	-17501
矢	-17502
铭	-17503
繳	-17504
鸿	-17505
漳	-17506
撥	-17507
漆	-17508
彗	-17509
趋	-17510
岐	-17511
肅	-17512
棍	-17513
盲	-17514
芯	-17515
慘	-17516
鋪	-17517
埠	-17518
夸	-17519
櫃	-17520
糊	-17521
颇	-17522
氛	-17523
娅	-17524
斬	-17525
鐸	-17526
橙	-17527
#	-17528
僱	-17529
鶴	-17530
垃	-17531
瑚	-17532
狮	-17533
擋	-17534
堵	-17535
斌	-17536
墳	-17537
扫	-17538
瑙	-17539
黏	-17540
圾	-17541
鏈	-17542
榴	-17543
煌	-17544
狹	-17545
嬰	-17546
跋	-17547
$	-17548
凹	-17549
脏	-17550
賭	-17551
謙	-17552
鴨	-17553
聰	-17554
艮	-17555
鞍	-17556
垣	-17557
奸	-17558
纤	-17559
赦	-17560
窮	-17561
戚	-17562
禎	-17563
邏	-17564
彬	-17565
捲	-17566
鱗	-17567
瓊	-17568
僑	-17569
卯	-17570
浴	-17571
辣	-17572
酰	-17573
騷	-17574
哭	-17575
崗	-17576
咒	-17577
硝	-17578
誘	-17579
勾	-17580
栋	-17581
訟	-17582
磅	-17583
饭	-17584
庵	-17585
а	-17586
噪	-17587
秉	-17588
弧	-17589
拯	-17590
梭	-17591
爸	-17592
癸	-17593
潰	-17594
瑰	-17595
賊	-17596
酉	-17597
吁	-17598
泄	-17599
辐	-17600
爺	-17601
霖	-17602
腸	-17603
惑	-17604
邸	-17605
齋	-17606
淳	-17607
骸	-17608
籤	-17609
鹤	-17610
乞	-17611
騙	-17612
粤	-17613
璋	-17614
樑	-17615
淹	-17616
綁	-17617
胃	-17618
喙	-17619
á	-17620
椒	-17621
閒	-17622
暢	-17623
匿	-17624
駿	-17625
奮	-17626
鸣	-17627
侶	-17628
迄	-17629
酬	-17630
顷	-17631
忧	-17632
燥	-17633
硅	-17634
誼	-17635
濒	-17636
禾	-17637
侄	-17638
喊	-17639
鎊	-17640
鱷	-17641
寵	-17642
欖	-17643
蘿	-17644
闸	-17645
憤	-17646
鯨	-17647
玫	-17648
摆	-17649
荆	-17650
虞	-17651
鵝	-17652
膨	-17653
牢	-17654
膽	-17655
牟	-17656
贷	-17657
啤	-17658
朔	-17659
禅	-17660
β	-17661
纖	-17662
懲	-17663
戎	-17664
匣	-17665
寡	-17666
溃	-17667
穌	-17668
颶	-17669
曝	-17670
膚	-17671
湛	-17672
韶	-17673
冶	-17674
摘	-17675
陝	-17676
纂	-17677
螢	-17678
汁	-17679
涛	-17680
拨	-17681
夾	-17682
蔽	-17683
塚	-17684
焰	-17685
刪	-17686
肤	-17687
涼	-17688
穗	-17689
穷	-17690
夹	-17691
幢	-17692
笛	-17693
凶	-17694
擢	-17695
榄	-17696
頃	-17697
肆	-17698
谊	-17699
哩	-17700
哇	-17701
懼	-17702
遙	-17703
隙	-17704
肠	-17705
滴	-17706
惨	-17707
ン	-17708
楠	-17709
践	-17710
淋	-17711
汕	-17712
穎	-17713
剿	-17714
哨	-17715
瀑	-17716
纬	-17717
寅	-17718
岑	-17719
胆	-17720
銳	-17721
卧	-17722
泌	-17723
淵	-17724
粘	-17725
餅	-17726
蝙	-17727
账	-17728
冥	-17729
瞄	-17730
狩	-17731
誰	-17732
賠	-17733
嫡	-17734
垒	-17735
撲	-17736
杏	-17737
禹	-17738
妓	-17739
芽	-17740
奋	-17741
闲	-17742
頌	-17743
о	-17744
殉	-17745
侠	-17746
拋	-17747
砍	-17748
韵	-17749
貪	-17750
奕	-17751
雁	-17752
敖	-17753
膀	-17754
拾	-17755
荡	-17756
仗	-17757
梓	-17758
仆	-17759
咀	-17760
孜	-17761
沛	-17762
砌	-17763
墩	-17764
廿	-17765
窟	-17766
饶	-17767
剌	-17768
筋	-17769
謠	-17770
驳	-17771
炉	-17772
墅	-17773
炼	-17774
闪	-17775
棠	-17776
狭	-17777
咨	-17778
嘛	-17779
畿	-17780
斋	-17781
傘	-17782
鹏	-17783
稽	-17784
磚	-17785
塵	-17786
峻	-17787
橘	-17788
晰	-17789
碘	-17790
罹	-17791
墜	-17792
輩	-17793
懂	-17794
虏	-17795
煮	-17796
纺	-17797
颠	-17798
啦	-17799
聊	-17800
舶	-17801
爛	-17802
兇	-17803
骚	-17804
诱	-17805
萌	-17806
耿	-17807
顛	-17808
酵	-17809
晤	-17810
竭	-17811
肿	-17812
赣	-17813
壩	-17814
彙	-17815
罐	-17816
瀨	-17817
廚	-17818
乒	-17819
煉	-17820
敷	-17821
骼	-17822
桶	-17823
宦	-17824
叢	-17825
讼	-17826
蜘	-17827
傲	-17828
勉	-17829
糾	-17830
詠	-17831
删	-17832
剖	-17833
犁	-17834
猩	-17835
鞭	-17836
歼	-17837
荔	-17838
褒	-17839
魅	-17840
濫	-17841
稚	-17842
茹	-17843
剥	-17844
绑	-17845
渊	-17846
荊	-17847
瓣	-17848
扑	-17849
钻	-17850
淚	-17851
锐	-17852
遥	-17853
凍	-17854
斩	-17855
蔚	-17856
墟	-17857
禽	-17858
苹	-17859
瘋	-17860
谭	-17861
−	-17862
祯	-17863
喚	-17864
簧	-17865
悅	-17866
裹	-17867
譴	-17868
蝦	-17869
衷	-17870
悔	-17871
暑	-17872
禍	-17873
纠	-17874
墾	-17875
孢	-17876
渦	-17877
蔓	-17878
薯	-17879
蔬	-17880
弊	-17881
婉	-17882
懿	-17883
い	-17884
蓉	-17885
厭	-17886
и	-17887
檐	-17888
舅	-17889
倪	-17890
畅	-17891
貸	-17892
臭	-17893
娥	-17894
廓	-17895
萍	-17896
趾	-17897
钠	-17898
ā	-17899
擠	-17900
潟	-17901
抬	-17902
僕	-17903
崛	-17904
愚	-17905
莞	-17906
蝕	-17907
咬	-17908
婴	-17909
ü	-17910
彪	-17911
榆	-17912
臥	-17913
í	-17914
疲	-17915
碗	-17916
爽	-17917
脆	-17918
厲	-17919
骗	-17920
弯	-17921
闖	-17922
淀	-17923
颈	-17924
′	-17925
瞬	-17926
饒	-17927
鹅	-17928
倖	-17929
挽	-17930
烤	-17931
鯛	-17932
嚇	-17933
谴	-17934
締	-17935
寂	-17936
幌	-17937
赔	-17938
滇	-17939
窑	-17940
宵	-17941
ó	-17942
擒	-17943
芦	-17944
諷	-17945
缴	-17946
俞	-17947
疼	-17948
吋	-17949
愤	-17950
説	-17951
坞	-17952
屢	-17953
釜	-17954
鸦	-17955
輿	-17956
皖	-17957
謹	-17958
烹	-17959
鵬	-17960
绵	-17961
鬚	-17962
抹	-17963
淫	-17964
伺	-17965
淆	-17966
谐	-17967
乓	-17968
煽	-17969
貶	-17970
盔	-17971
蚀	-17972
翡	-17973
舜	-17974
谦	-17975
迭	-17976
霜	-17977
籠	-17978
詐	-17979
諡	-17980
愉	-17981
炒	-17982
頜	-17983
甄	-17984
蕉	-17985
塢	-17986
绳	-17987
弼	-17988
呢	-17989
彝	-17990
渝	-17991
鑄	-17992
挫	-17993
杖	-17994
贿	-17995
龟	-17996
猿	-17997
扳	-17998
衙	-17999
铝	-18000
舷	-18001
俯	-18002
抛	-18003
羌	-18004
樟	-18005
狸	-18006
穀	-18007
谥	-18008
贬	-18009
虜	-18010
鴉	-18011
漿	-18012
舆	-18013
釐	-18014
陇	-18015
腫	-18016
剝	-18017
倭	-18018
撐	-18019
膝	-18020
沁	-18021
縫	-18022
肪	-18023
牡	-18024
琦	-18025
脸	-18026
蟻	-18027
舖	-18028
棺	-18029
啓	-18030
豚	-18031
н	-18032
溢	-18033
贪	-18034
鑼	-18035
鬱	-18036
缝	-18037
谁	-18038
傍	-18039
庐	-18040
渴	-18041
匡	-18042
锅	-18043
敕	-18044
綿	-18045
匾	-18046
窝	-18047
擲	-18048
吡	-18049
暹	-18050
巩	-18051
悦	-18052
眷	-18053
錐	-18054
铅	-18055
е	-18056
惩	-18057
湧	-18058
茜	-18059
棱	-18060
裙	-18061
踐	-18062
髓	-18063
諧	-18064
妈	-18065
嘲	-18066
巾	-18067
祁	-18068
堯	-18069
峙	-18070
窩	-18071
糟	-18072
黔	-18073
濾	-18074
腎	-18075
滤	-18076
狙	-18077
樊	-18078
苷	-18079
坠	-18080
漲	-18081
窃	-18082
溉	-18083
袍	-18084
睿	-18085
汾	-18086
慌	-18087
粟	-18088
紳	-18089
婷	-18090
祇	-18091
胚	-18092
諭	-18093
孵	-18094
鸭	-18095
贼	-18096
饥	-18097
梧	-18098
沫	-18099
襪	-18100
僵	-18101
宠	-18102
ö	-18103
羞	-18104
飼	-18105
冤	-18106
浏	-18107
涡	-18108
р	-18109
涨	-18110
洽	-18111
蛮	-18112
犀	-18113
詮	-18114
尧	-18115
惧	-18116
幟	-18117
紮	-18118
蛤	-18119
陞	-18120
\	-18121
沧	-18122
纜	-18123
飽	-18124
茎	-18125
蔭	-18126
丟	-18127
脹	-18128
蘆	-18129
冻	-18130
汐	-18131
挡	-18132
醛	-18133
惹	-18134
渭	-18135
諜	-18136
嵩	-18137
毓	-18138
鹼	-18139
嗎	-18140
聪	-18141
缀	-18142
イ	-18143
妾	-18144
渤	-18145
佣	-18146
牺	-18147
磺	-18148
釀	-18149
阀	-18150
廁	-18151
鬧	-18152
伞	-18153
奢	-18154
檀	-18155
桨	-18156
浆	-18157
兀	-18158
鍋	-18159
榕	-18160
膏	-18161
钩	-18162
跤	-18163
鯊	-18164
賺	-18165
胀	-18166
胤	-18167
勿	-18168
您	-18169
溴	-18170
肚	-18171
泵	-18172
篤	-18173
樸	-18174
濤	-18175
雾	-18176
し	-18177
嘎	-18178
堀	-18179
墮	-18180
簿	-18181
郝	-18182
祂	-18183
肋	-18184
讽	-18185
枯	-18186
瞭	-18187
捍	-18188
膛	-18189
莖	-18190
壹	-18191
攔	-18192
泗	-18193
緝	-18194
沂	-18195
闆	-18196
滯	-18197
辜	-18198
镑	-18199
颂	-18200
贩	-18201
刃	-18202
鳞	-18203
滲	-18204
罵	-18205
阎	-18206
尘	-18207
闢	-18208
璧	-18209
厉	-18210
塾	-18211
禱	-18212
鰓	-18213
厌	-18214
ス	-18215
楷	-18216
槟	-18217
饼	-18218
屡	-18219
谣	-18220
顱	-18221
堰	-18222
帜	-18223
蒼	-18224
蝴	-18225
ん	-18226
媛	-18227
琅	-18228
衞	-18229
傭	-18230
枕	-18231
睹	-18232
磐	-18233
聂	-18234
逗	-18235
馳	-18236
胖	-18237
挝	-18238
犧	-18239
莽	-18240
酚	-18241
笠	-18242
撑	-18243
鑲	-18244
雯	-18245
丢	-18246
憾	-18247
吟	-18248
邯	-18249
匙	-18250
祺	-18251
浑	-18252
聶	-18253
抨	-18254
橢	-18255
疇	-18256
蹄	-18257
竊	-18258
胰	-18259
睦	-18260
窦	-18261
鋁	-18262
耆	-18263
虔	-18264
钾	-18265
棵	-18266
颖	-18267
竺	-18268
辈	-18269
鲨	-18270
婿	-18271
帐	-18272
滥	-18273
芜	-18274
咪	-18275
纏	-18276
菁	-18277
鉛	-18278
う	-18279
磡	-18280
鸚	-18281
岱	-18282
蕨	-18283
邢	-18284
撕	-18285
醬	-18286
綽	-18287
瀕	-18288
紡	-18289
菸	-18290
洩	-18291
蠻	-18292
煩	-18293
馨	-18294
渣	-18295
梗	-18296
瑾	-18297
拦	-18298
谍	-18299
栓	-18300
閥	-18301
盎	-18302
濁	-18303
舵	-18304
釣	-18305
錶	-18306
ä	-18307
缪	-18308
た	-18309
麾	-18310
丕	-18311
姦	-18312
溥	-18313
祸	-18314
肾	-18315
侏	-18316
妝	-18317
靶	-18318
と	-18319
滞	-18320
缔	-18321
卦	-18322
钓	-18323
陡	-18324
铃	-18325
ル	-18326
唤	-18327
岔	-18328
羟	-18329
菇	-18330
芮	-18331
俾	-18332
摸	-18333
氰	-18334
琛	-18335
癒	-18336
麒	-18337
抒	-18338
阐	-18339
懋	-18340
掀	-18341
瘦	-18342
俸	-18343
谨	-18344
斧	-18345
淇	-18346
诈	-18347
謎	-18348
侣	-18349
晃	-18350
篷	-18351
艰	-18352
戍	-18353
鄒	-18354
稜	-18355
淪	-18356
鰻	-18357
慾	-18358
醜	-18359
饱	-18360
妨	-18361
盪	-18362
矣	-18363
霆	-18364
霉	-18365
佥	-18366
苻	-18367
晏	-18368
钥	-18369
μ	-18370
艱	-18371
捧	-18372
緻	-18373
衫	-18374
瞻	-18375
黜	-18376
蚌	-18377
埼	-18378
屑	-18379
侮	-18380
楓	-18381
蜒	-18382
酿	-18383
驟	-18384
噬	-18385
祷	-18386
腕	-18387
羚	-18388
稠	-18389
鲸	-18390
焊	-18391
攤	-18392
苍	-18393
蔗	-18394
鞏	-18395
穹	-18396
篡	-18397
鋸	-18398
镶	-18399
帛	-18400
皓	-18401
鶯	-18402
嗜	-18403
瀏	-18404
溺	-18405
熹	-18406
賄	-18407
蜿	-18408
隅	-18409
倚	-18410
霹	-18411
苔	-18412
畴	-18413
に	-18414
溜	-18415
缮	-18416
搏	-18417
ラ	-18418
竖	-18419
劲	-18420
厨	-18421
梳	-18422
泾	-18423
敞	-18424
炬	-18425
燦	-18426
暱	-18427
汞	-18428
瑶	-18429
•	-18430
豁	-18431
浚	-18432
煥	-18433
垦	-18434
捨	-18435
绒	-18436
偕	-18437
慨	-18438
祕	-18439
阱	-18440
鵡	-18441
傀	-18442
蕊	-18443
鈞	-18444
锥	-18445
贖	-18446
酪	-18447
妄	-18448
砸	-18449
鮋	-18450
昊	-18451
蚁	-18452
沦	-18453
蟾	-18454
啊	-18455
轩	-18456
闵	-18457
瑤	-18458
с	-18459
坟	-18460
挤	-18461
翟	-18462
爷	-18463
か	-18464
雛	-18465
驰	-18466
渗	-18467
笨	-18468
钧	-18469
筛	-18470
儡	-18471
妍	-18472
虧	-18473
る	-18474
皋	-18475
茱	-18476
缆	-18477
嘻	-18478
褲	-18479
忒	-18480
悚	-18481
钙	-18482
綴	-18483
斡	-18484
т	-18485
曜	-18486
莓	-18487
曙	-18488
淞	-18489
湊	-18490
嬪	-18491
铎	-18492
幡	-18493
煞	-18494
в	-18495
焉	-18496
瑛	-18497
澀	-18498
繹	-18499
〔	-18500
〕	-18501
萃	-18502
扔	-18503
赌	-18504
肽	-18505
蛾	-18506
峭	-18507
硼	-18508
吵	-18509
枫	-18510
椭	-18511
疯	-18512
瘟	-18513
衆	-18514
隼	-18515
祚	-18516
哉	-18517
鑒	-18518
埤	-18519
烂	-18520
к	-18521
覓	-18522
鈔	-18523
啶	-18524
誦	-18525
娟	-18526
巳	-18527
恪	-18528
矽	-18529
婭	-18530
沸	-18531
渥	-18532
娄	-18533
僉	-18534
薰	-18535
棣	-18536
鳍	-18537
è	-18538
吗	-18539
泣	-18540
瀛	-18541
霄	-18542
兜	-18543
兑	-18544
匀	-18545
埗	-18546
荫	-18547
瑩	-18548
饲	-18549
陌	-18550
な	-18551
芹	-18552
鈣	-18553
л	-18554
壟	-18555
岬	-18556
疹	-18557
堊	-18558
擱	-18559
ト	-18560
鹹	-18561
凿	-18562
闯	-18563
餓	-18564
【	-18565
】	-18566
紗	-18567
陛	-18568
靼	-18569
咎	-18570
峨	-18571
艷	-18572
蚊	-18573
隕	-18574
澜	-18575
糙	-18576
垮	-18577
墊	-18578
皂	-18579
荀	-18580
膳	-18581
卤	-18582
蕩	-18583
谕	-18584
恤	-18585
隍	-18586
は	-18587
り	-18588
戮	-18589
箕	-18590
壶	-18591
戟	-18592
炫	-18593
沐	-18594
轎	-18595
鈕	-18596
闡	-18597
醚	-18598
靴	-18599
鞘	-18600
〜	-18601
豎	-18602
皈	-18603
鑫	-18604
樺	-18605
骤	-18606
绣	-18607
殲	-18608
隘	-18609
倆	-18610
鎌	-18611
壕	-18612
柜	-18613
沮	-18614
绸	-18615
醋	-18616
崑	-18617
毯	-18618
沽	-18619
謊	-18620
泼	-18621
烃	-18622
遏	-18623
ま	-18624
垄	-18625
腥	-18626
滙	-18627
萝	-18628
炯	-18629
畝	-18630
椰	-18631
咽	-18632
垫	-18633
氹	-18634
笃	-18635
蟬	-18636
颅	-18637
佬	-18638
姨	-18639
艳	-18640
烦	-18641
壺	-18642
芸	-18643
虾	-18644
傣	-18645
彤	-18646
萎	-18647
藔	-18648
跪	-18649
渾	-18650
閏	-18651
摺	-18652
臼	-18653
飢	-18654
淤	-18655
鑰	-18656
蠟	-18657
訥	-18658
諫	-18659
呆	-18660
鈉	-18661
飄	-18662
崁	-18663
郸	-18664
䲁	-18665
恕	-18666
嘯	-18667
叹	-18668
奚	-18669
寰	-18670
孺	-18671
枣	-18672
颌	-18673
±	-18674
叱	-18675
邹	-18676
桅	-18677
誅	-18678
馈	-18679
萱	-18680
褶	-18681
閔	-18682
饿	-18683
琵	-18684
蒐	-18685
諒	-18686
鍊	-18687
曦	-18688
譬	-18689
谏	-18690
龚	-18691
γ	-18692
嘆	-18693
刮	-18694
聆	-18695
ク	-18696
@	-18697
ア	-18698
禺	-18699
乍	-18700
汴	-18701
苛	-18702
夭	-18703
柑	-18704
濠	-18705
煎	-18706
绰	-18707
葫	-18708
釘	-18709
が	-18710
毙	-18711
琶	-18712
誇	-18713
壢	-18714
攬	-18715
樱	-18716
潼	-18717
靡	-18718
峇	-18719
弋	-18720
泪	-18721
蕴	-18722
衢	-18723
酱	-18724
陋	-18725
吓	-18726
妆	-18727
抖	-18728
滬	-18729
唑	-18730
淄	-18731
漕	-18732
驿	-18733
槳	-18734
焕	-18735
绅	-18736
鈍	-18737
氦	-18738
顎	-18739
捞	-18740
潑	-18741
敛	-18742
庾	-18743
翊	-18744
蒿	-18745
趟	-18746
リ	-18747
鈾	-18748
て	-18749
拐	-18750
毆	-18751
綏	-18752
坍	-18753
埕	-18754
肛	-18755
鉤	-18756
锌	-18757
恥	-18758
臧	-18759
莆	-18760
汲	-18761
繆	-18762
憩	-18763
跆	-18764
韌	-18765
洼	-18766
蘊	-18767
闹	-18768
シ	-18769
蔑	-18770
槐	-18771
晟	-18772
珂	-18773
斃	-18774
沾	-18775
艏	-18776
蜴	-18777
诛	-18778
钞	-18779
暮	-18780
鰍	-18781
毋	-18782
堕	-18783
悄	-18784
倩	-18785
灶	-18786
磊	-18787
篆	-18788
勐	-18789
檬	-18790
踩	-18791
π	-18792
渲	-18793
悍	-18794
諱	-18795
勻	-18796
湄	-18797
骂	-18798
ο	-18799
ا	-18800
笙	-18801
伶	-18802
晖	-18803
刹	-18804
朽	-18805
鷗	-18806
亏	-18807
扯	-18808
佚	-18809
暉	-18810
秃	-18811
纱	-18812
赎	-18813
轿	-18814
锯	-18815
羧	-18816
苞	-18817
胱	-18818
殴	-18819
謬	-18820
瀚	-18821
撼	-18822
寝	-18823
巖	-18824
悖	-18825
撈	-18826
妒	-18827
駱	-18828
‰	-18829
缉	-18830
鑿	-18831
ッ	-18832
冉	-18833
拷	-18834
骆	-18835
掷	-18836
攸	-18837
龔	-18838
捆	-18839
楞	-18840
竇	-18841
臻	-18842
萼	-18843
锤	-18844
〇	-18845
卉	-18846
砷	-18847
躁	-18848
鄞	-18849
き	-18850
鱂	-18851
苟	-18852
蜡	-18853
诵	-18854
鉅	-18855
驼	-18856
搁	-18857
柵	-18858
芥	-18859
倦	-18860
莪	-18861
侖	-18862
汛	-18863
缠	-18864
檳	-18865
躺	-18866
啸	-18867
釉	-18868
兌	-18869
瑋	-18870
廬	-18871
甥	-18872
鷺	-18873
蕙	-18874
蠢	-18875
裘	-18876
镍	-18877
さ	-18878
眶	-18879
峯	-18880
瀧	-18881
僖	-18882
く	-18883
媚	-18884
畸	-18885
盼	-18886
竿	-18887
惕	-18888
絨	-18889
耻	-18890
閻	-18891
汙	-18892
侗	-18893
谟	-18894
ら	-18895
殆	-18896
λ	-18897
軀	-18898
骏	-18899
喃	-18900
耦	-18901
剃	-18902
惱	-18903
歪	-18904
瞿	-18905
绎	-18906
羲	-18907
芷	-18908
匆	-18909
喘	-18910
簇	-18911
訝	-18912
潞	-18913
硒	-18914
侈	-18915
嵐	-18916
饋	-18917
鲤	-18918
锂	-18919
苓	-18920
婁	-18921
栈	-18922
篩	-18923
揆	-18924
杞	-18925
痴	-18926
窯	-18927
谜	-18928
咏	-18929
甦	-18930
お	-18931
栅	-18932
侃	-18933
耍	-18934
阡	-18935
毘	-18936
燮	-18937
を	-18938
樽	-18939
膺	-18940
裤	-18941
鼬	-18942
弈	-18943
衬	-18944
镁	-18945
謨	-18946
圃	-18947
姪	-18948
糞	-18949
鳄	-18950
ν	-18951
垩	-18952
嬌	-18953
頑	-18954
烘	-18955
綺	-18956
傻	-18957
嘱	-18958
昧	-18959
羈	-18960
葱	-18961
峪	-18962
暈	-18963
莒	-18964
檻	-18965
魄	-18966
カ	-18967
愁	-18968
瀉	-18969
甬	-18970
繡	-18971
錘	-18972
庠	-18973
濮	-18974
蠕	-18975
遴	-18976
愧	-18977
俭	-18978
稷	-18979
ρ	-18980
蔥	-18981
椿	-18982
賃	-18983
宸	-18984
灼	-18985
瞳	-18986
谅	-18987
滄	-18988
綾	-18989
脾	-18990
嶽	-18991
洙	-18992
瀾	-18993
铀	-18994
谎	-18995
迺	-18996
媳	-18997
糯	-18998
駝	-18999
菅	-19000
葆	-19001
鱈	-19002
縛	-19003
蚤	-19004
タ	-19005
ロ	-19006
瞞	-19007
れ	-19008
嫻	-19009
殯	-19010
灑	-19011
絮	-19012
胥	-19013
贛	-19014
顽	-19015
こ	-19016
帧	-19017
襯	-19018
褚	-19019
珪	-19020
飘	-19021
佃	-19022
陂	-19023
あ	-19024
侬	-19025
琰	-19026
で	-19027
勛	-19028
圻	-19029
枋	-19030
ς	-19031
産	-19032
駭	-19033
驕	-19034
み	-19035
扈	-19036
澈	-19037
濬	-19038
诬	-19039
冢	-19040
琥	-19041
à	-19042
剔	-19043
樵	-19044
狠	-19045
ε	-19046
祉	-19047
鳩	-19048
冗	-19049
筠	-19050
酗	-19051
â	-19052
兖	-19053
孀	-19054
锈	-19055
韧	-19056
鴿	-19057
蒜	-19058
詛	-19059
闰	-19060
驛	-19061
穫	-19062
雉	-19063
僻	-19064
昕	-19065
綸	-19066
ç	-19067
吼	-19068
嫉	-19069
朕	-19070
у	-19071
岚	-19072
掖	-19073
昵	-19074
沅	-19075
浊	-19076
璽	-19077
碉	-19078
芋	-19079
鷲	-19080
拙	-19081
擄	-19082
⋯	-19083
匝	-19084
夔	-19085
拂	-19086
曳	-19087
餉	-19088
巔	-19089
桩	-19090
魨	-19091
宕	-19092
挾	-19093
昱	-19094
昼	-19095
冼	-19096
畑	-19097
钊	-19098
τ	-19099
泸	-19100
潍	-19101
樁	-19102
炔	-19103
σ	-19104
寢	-19105
瑕	-19106
襟	-19107
貂	-19108
楔	-19109
ī	-19110
д	-19111
怜	-19112
マ	-19113
証	-19114
伎	-19115
昨	-19116
癮	-19117
誣	-19118
赚	-19119
跗	-19120
黴	-19121
ú	-19122
鉀	-19123
囑	-19124
齣	-19125
婢	-19126
捏	-19127
钉	-19128
靂	-19129
霰	-19130
骄	-19131
滦	-19132
铵	-19133
靳	-19134
薨	-19135
烽	-19136
璞	-19137
雏	-19138
篠	-19139
腭	-19140
鮭	-19141
叻	-19142
拌	-19143
阙	-19144
剎	-19145
燭	-19146
莺	-19147
诠	-19148
叡	-19149
吠	-19150
尬	-19151
巽	-19152
忻	-19153
肘	-19154
叭	-19155
掣	-19156
儂	-19157
矯	-19158
鍛	-19159
咤	-19160
咲	-19161
孛	-19162
摊	-19163
睞	-19164
礫	-19165
绞	-19166
艉	-19167
鵰	-19168
俩	-19169
湍	-19170
瀋	-19171
赂	-19172
雳	-19173
鬍	-19174
儉	-19175
哆	-19176
粥	-19177
脖	-19178
蘑	-19179
輾	-19180
鄙	-19181
韬	-19182
乂	-19183
昶	-19184
玟	-19185
睽	-19186
遁	-19187
钮	-19188
鹦	-19189
槃	-19190
蝇	-19191
ド	-19192
洮	-19193
浜	-19194
锻	-19195
鞑	-19196
岷	-19197
慷	-19198
琮	-19199
睾	-19200
牒	-19201
й	-19202
咳	-19203
懶	-19204
蝸	-19205
δ	-19206
揽	-19207
猷	-19208
瘫	-19209
綢	-19210
羰	-19211
蠶	-19212
逵	-19213
鰕	-19214
卅	-19215
嗅	-19216
戛	-19217
掙	-19218
杠	-19219
ι	-19220
ち	-19221
暇	-19222
熄	-19223
蓟	-19224
馴	-19225
弩	-19226
涿	-19227
煜	-19228
讳	-19229
鳚	-19230
晦	-19231
撓	-19232
潢	-19233
м	-19234
渚	-19235
蠅	-19236
邺	-19237
稼	-19238
诫	-19239
鐮	-19240
É	-19241
嶄	-19242
攏	-19243
榈	-19244
磋	-19245
迂	-19246
矚	-19247
邕	-19248
鰩	-19249
κ	-19250
レ	-19251
柿	-19252
蚕	-19253
钝	-19254
沌	-19255
茉	-19256
訶	-19257
も	-19258
唸	-19259
晝	-19260
豔	-19261
嫔	-19262
螈	-19263
裳	-19264
鞠	-19265
餵	-19266
兗	-19267
憐	-19268
砾	-19269
迥	-19270
懈	-19271
蹠	-19272
饑	-19273
ñ	-19274
挠	-19275
溧	-19276
蝗	-19277
圩	-19278
晕	-19279
荼	-19280
赁	-19281
旌	-19282
螂	-19283
誡	-19284
窖	-19285
惰	-19286
氓	-19287
濂	-19288
璐	-19289
骁	-19290
ミ	-19291
沥	-19292
瞰	-19293
籽	-19294
賬	-19295
飪	-19296
凑	-19297
詭	-19298
鏢	-19299
隴	-19300
ジ	-19301
澱	-19302
癱	-19303
羣	-19304
诰	-19305
颍	-19306
啄	-19307
š	-19308
叮	-19309
拇	-19310
葺	-19311
鍍	-19312
←	-19313
オ	-19314
哮	-19315
妲	-19316
榔	-19317
祜	-19318
鉉	-19319
钛	-19320
熵	-19321
○	-19322
歙	-19323
炀	-19324
す	-19325
妊	-19326
擂	-19327
槓	-19328
瀝	-19329
蛺	-19330
謗	-19331
吒	-19332
挨	-19333
璇	-19334
窪	-19335
つ	-19336
刁	-19337
喂	-19338
憎	-19339
涧	-19340
蜗	-19341
頤	-19342
凋	-19343
荧	-19344
贮	-19345
沱	-19346
賤	-19347
珉	-19348
緋	-19349
茫	-19350
蔷	-19351
銓	-19352
扼	-19353
撇	-19354
楨	-19355
绛	-19356
櫚	-19357
铬	-19358
唔	-19359
窒	-19360
賑	-19361
コ	-19362
眺	-19363
檸	-19364
絞	-19365
鵑	-19366
ə	-19367
斂	-19368
殭	-19369
躬	-19370
鹘	-19371
じ	-19372
丫	-19373
咐	-19374
痪	-19375
粪	-19376
黯	-19377
ô	-19378
フ	-19379
倘	-19380
墘	-19381
婺	-19382
泻	-19383
缚	-19384
頰	-19385
奄	-19386
澡	-19387
瑄	-19388
繕	-19389
翎	-19390
酌	-19391
醣	-19392
斛	-19393
璜	-19394
翹	-19395
飆	-19396
咕	-19397
幂	-19398
榨	-19399
龛	-19400
奘	-19401
櫛	-19402
蟒	-19403
柚	-19404
稟	-19405
谬	-19406
轍	-19407
娩	-19408
桦	-19409
笈	-19410
筱	-19411
膩	-19412
鑾	-19413
淦	-19414
卞	-19415
瘓	-19416
羯	-19417
鰈	-19418
や	-19419
撿	-19420
鸽	-19421
摹	-19422
旻	-19423
浇	-19424
禿	-19425
ل	-19426
佤	-19427
怠	-19428
癖	-19429
辗	-19430
韃	-19431
颚	-19432
佘	-19433
秧	-19434
蝉	-19435
镰	-19436
聾	-19437
郢	-19438
锰	-19439
鹉	-19440
滁	-19441
皱	-19442
腈	-19443
莘	-19444
藓	-19445
鏽	-19446
骷	-19447
鹃	-19448
檯	-19449
莹	-19450
洒	-19451
苳	-19452
誥	-19453
锚	-19454
镀	-19455
丐	-19456
曬	-19457
逍	-19458
☆	-19459
賂	-19460
偃	-19461
劭	-19462
嚮	-19463
摯	-19464
鎂	-19465
髒	-19466
髻	-19467
っ	-19468
凳	-19469
玺	-19470
瞒	-19471
鋰	-19472
嫂	-19473
恺	-19474
槌	-19475
虢	-19476
驯	-19477
驸	-19478
熬	-19479
蔔	-19480
覃	-19481
龕	-19482
巍	-19483
杵	-19484
涪	-19485
熾	-19486
饪	-19487
徘	-19488
羁	-19489
徊	-19490
璟	-19491
诃	-19492
钵	-19493
ウ	-19494
巅	-19495
蠍	-19496
觐	-19497
ω	-19498
テ	-19499
旷	-19500
甩	-19501
睢	-19502
颐	-19503
サ	-19504
ナ	-19505
踝	-19506
キ	-19507
ハ	-19508
檜	-19509
浣	-19510
蓓	-19511
薑	-19512
饷	-19513
驹	-19514
劈	-19515
嶋	-19516
悶	-19517
歹	-19518
唆	-19519
桢	-19520
炙	-19521
洱	-19522
葦	-19523
酥	-19524
堇	-19525
肱	-19526
□	-19527
妳	-19528
^	-19529
恼	-19530
撾	-19531
泮	-19532
瓮	-19533
謁	-19534
輟	-19535
醯	-19536
だ	-19537
ニ	-19538
拮	-19539
晒	-19540
瘾	-19541
窘	-19542
諺	-19543
С	-19544
嗓	-19545
柩	-19546
楹	-19547
燧	-19548
皺	-19549
呤	-19550
棧	-19551
碁	-19552
聿	-19553
蛟	-19554
ı	-19555
亢	-19556
懇	-19557
撃	-19558
痊	-19559
罄	-19560
躯	-19561
闕	-19562
麴	-19563
柘	-19564
櫸	-19565
滔	-19566
湳	-19567
窺	-19568
綬	-19569
鈦	-19570
厕	-19571
坳	-19572
桔	-19573
脷	-19574
虱	-19575
鄱	-19576
乖	-19577
巒	-19578
惶	-19579
淖	-19580
濑	-19581
焯	-19582
姥	-19583
柠	-19584
澧	-19585
鄺	-19586
顫	-19587
吩	-19588
嬉	-19589
桁	-19590
烛	-19591
耽	-19592
赈	-19593
鸞	-19594
羨	-19595
荻	-19596
鲷	-19597
佗	-19598
漱	-19599
餡	-19600
馥	-19601
佟	-19602
娠	-19603
泓	-19604
焘	-19605
畠	-19606
鸠	-19607
戳	-19608
秤	-19609
釁	-19610
ê	-19611
嘔	-19612
屁	-19613
瓯	-19614
疵	-19615
矗	-19616
簷	-19617
腱	-19618
ブ	-19619
氾	-19620
煒	-19621
疤	-19622
皿	-19623
筵	-19624
η	-19625
漩	-19626
碌	-19627
筏	-19628
鈺	-19629
馏	-19630
崴	-19631
橇	-19632
竄	-19633
簾	-19634
菠	-19635
鎧	-19636
堺	-19637
忱	-19638
衅	-19639
袜	-19640
铉	-19641
馀	-19642
ß	-19643
呀	-19644
寥	-19645
螨	-19646
誹	-19647
嘌	-19648
弛	-19649
谤	-19650
逅	-19651
釧	-19652
魟	-19653
ū	-19654
帘	-19655
幔	-19656
辍	-19657
逕	-19658
邂	-19659
栃	-19660
笋	-19661
羹	-19662
萘	-19663
衮	-19664
鹫	-19665
デ	-19666
锑	-19667
閑	-19668
«	-19669
俑	-19670
傢	-19671
尻	-19672
檎	-19673
薹	-19674
婕	-19675
愍	-19676
榛	-19677
瘧	-19678
贻	-19679
錨	-19680
г	-19681
プ	-19682
彷	-19683
撮	-19684
粲	-19685
膦	-19686
讶	-19687
鬣	-19688
鳃	-19689
麝	-19690
ō	-19691
叩	-19692
婪	-19693
狡	-19694
睐	-19695
箏	-19696
绶	-19697
⁄	-19698
喆	-19699
恬	-19700
愷	-19701
搗	-19702
曇	-19703
槿	-19704
琨	-19705
鴞	-19706
啞	-19707
宥	-19708
灿	-19709
熏	-19710
癲	-19711
醮	-19712
グ	-19713
轅	-19714
ュ	-19715
玖	-19716
羔	-19717
け	-19718
査	-19719
纶	-19720
踞	-19721
骰	-19722
鳅	-19723
チ	-19724
娇	-19725
梢	-19726
诡	-19727
鄴	-19728
銮	-19729
铲	-19730
я	-19731
ャ	-19732
噁	-19733
塹	-19734
揉	-19735
籬	-19736
豈	-19737
鎳	-19738
饵	-19739
堃	-19740
恳	-19741
爹	-19742
腋	-19743
蝎	-19744
蟠	-19745
貽	-19746
К	-19747
奬	-19748
灸	-19749
猝	-19750
螯	-19751
鎬	-19752
麽	-19753
鼩	-19754
»	-19755
č	-19756
俏	-19757
枉	-19758
釗	-19759
ë	-19760
曠	-19761
疽	-19762
翘	-19763
肄	-19764
舺	-19765
霓	-19766
鹭	-19767
※	-19768
ム	-19769
俚	-19770
榻	-19771
瑣	-19772
拢	-19773
涇	-19774
艋	-19775
苇	-19776
銃	-19777
媲	-19778
岌	-19779
楣	-19780
蕪	-19781
驴	-19782
唾	-19783
崧	-19784
栩	-19785
氙	-19786
疚	-19787
诅	-19788
鱲	-19789
鳌	-19790
峒	-19791
疟	-19792
紓	-19793
肴	-19794
苣	-19795
覲	-19796
邳	-19797
ر	-19798
捻	-19799
涝	-19800
糸	-19801
脇	-19802
轭	-19803
胄	-19804
诽	-19805
闍	-19806
闾	-19807
鲈	-19808
パ	-19809
儁	-19810
蔻	-19811
酐	-19812
А	-19813
б	-19814
喧	-19815
沔	-19816
筲	-19817
粱	-19818
諦	-19819
谒	-19820
鋅	-19821
噩	-19822
甾	-19823
菴	-19824
郴	-19825
鹊	-19826
ь	-19827
怯	-19828
炽	-19829
瑯	-19830
箴	-19831
觅	-19832
謚	-19833
貯	-19834
遐	-19835
鈎	-19836
鸥	-19837
鹵	-19838
祗	-19839
钴	-19840
鰲	-19841
俐	-19842
勖	-19843
弁	-19844
悌	-19845
烙	-19846
獾	-19847
珲	-19848
臚	-19849
蜻	-19850
鏗	-19851
鑣	-19852
钨	-19853
鼐	-19854
ィ	-19855
滘	-19856
聳	-19857
褻	-19858
遶	-19859
θ	-19860
ы	-19861
亳	-19862
俳	-19863
咯	-19864
攘	-19865
猥	-19866
琐	-19867
赓	-19868
п	-19869
バ	-19870
亘	-19871
呕	-19872
嘧	-19873
屎	-19874
昀	-19875
煦	-19876
甯	-19877
碾	-19878
鏟	-19879
雒	-19880
餾	-19881
鲑	-19882
わ	-19883
俟	-19884
僭	-19885
嚼	-19886
歆	-19887
叟	-19888
挣	-19889
榷	-19890
浒	-19891
蚂	-19892
貳	-19893
醴	-19894
餚	-19895
φ	-19896
В	-19897
―	-19898
エ	-19899
嬴	-19900
寞	-19901
掸	-19902
筍	-19903
骠	-19904
檄	-19905
渎	-19906
佯	-19907
嫦	-19908
孽	-19909
珮	-19910
瘡	-19911
箔	-19912
遽	-19913
惇	-19914
琢	-19915
瓚	-19916
嵴	-19917
澍	-19918
灝	-19919
犍	-19920
絆	-19921
罔	-19922
脩	-19923
腻	-19924
薊	-19925
袒	-19926
鱇	-19927
佼	-19928
弔	-19929
琬	-19930
褫	-19931
ダ	-19932
涩	-19933
盯	-19934
糜	-19935
絹	-19936
躋	-19937
匕	-19938
疣	-19939
蹲	-19940
铂	-19941
ć	-19942
ノ	-19943
呋	-19944
哔	-19945
廍	-19946
痘	-19947
螃	-19948
鉻	-19949
鮨	-19950
嗪	-19951
囉	-19952
抉	-19953
挟	-19954
棗	-19955
湃	-19956
钼	-19957
驍	-19958
髏	-19959
鮟	-19960
鷸	-19961
え	-19962
呵	-19963
娑	-19964
摒	-19965
攪	-19966
蝰	-19967
メ	-19968
モ	-19969
兮	-19970
扒	-19971
捣	-19972
瞎	-19973
砚	-19974
碲	-19975
緹	-19976
訣	-19977
ē	-19978
憬	-19979
槛	-19980
紊	-19981
钡	-19982
霑	-19983
め	-19984
噻	-19985
嬅	-19986
尷	-19987
洵	-19988
碇	-19989
菏	-19990
謫	-19991
ø	-19992
ŋ	-19993
よ	-19994
勺	-19995
唁	-19996
涸	-19997
筝	-19998
舫	-19999
蹦	-20000
镖	-20001
М	-20002
П	-20003
Р	-20004
娼	-20005
慑	-20006
掏	-20007
锺	-20008
镐	-20009
咄	-20010
嗽	-20011
忤	-20012
恃	-20013
珞	-20014
●	-20015
匮	-20016
哌	-20017
榭	-20018
穢	-20019
糠	-20020
鉗	-20021
鳶	-20022
Д	-20023
冪	-20024
绢	-20025
荥	-20026
蠡	-20027
鞅	-20028
ي	-20029
侷	-20030
焙	-20031
訛	-20032
鎚	-20033
闇	-20034
靛	-20035
Т	-20036
喹	-20037
妤	-20038
漯	-20039
畲	-20040
蕈	-20041
讞	-20042
崭	-20043
帷	-20044
彧	-20045
絃	-20046
萩	-20047
蜓	-20048
揀	-20049
珈	-20050
眩	-20051
醃	-20052
釷	-20053
闷	-20054
駙	-20055
铯	-20056
靚	-20057
餌	-20058
ч	-20059
啉	-20060
岂	-20061
幺	-20062
戡	-20063
詣	-20064
ł	-20065
ょ	-20066
挚	-20067
燊	-20068
癇	-20069
癫	-20070
矫	-20071
轼	-20072
邛	-20073
鄢	-20074
驊	-20075
ã	-20076
壠	-20077
夯	-20078
涟	-20079
辕	-20080
隗	-20081
驥	-20082
Å	-20083
་	-20084
啼	-20085
憧	-20086
揖	-20087
琊	-20088
盏	-20089
脛	-20090
谿	-20091
Δ	-20092
憨	-20093
耸	-20094
萜	-20095
螳	-20096
跻	-20097
涤	-20098
蛹	-20099
錳	-20100
啮	-20101
坯	-20102
垢	-20103
岖	-20104
殡	-20105
洄	-20106
漪	-20107
漾	-20108
醍	-20109
凜	-20110
螞	-20111
韜	-20112
囱	-20113
揣	-20114
歳	-20115
痫	-20116
薔	-20117
隈	-20118
鰂	-20119
奭	-20120
懒	-20121
懺	-20122
栱	-20123
瀆	-20124
瑠	-20125
疮	-20126
碣	-20127
萤	-20128
逞	-20129
闋	-20130
颤	-20131
ろ	-20132
坻	-20133
懦	-20134
槻	-20135
瓏	-20136
砦	-20137
亵	-20138
墻	-20139
弑	-20140
彿	-20141
挹	-20142
晞	-20143
栢	-20144
氐	-20145
裨	-20146
辻	-20147
醐	-20148
霾	-20149
齦	-20150
吶	-20151
弒	-20152
潁	-20153
牝	-20154
盂	-20155
缙	-20156
荚	-20157
贱	-20158
钰	-20159
驃	-20160
佰	-20161
炜	-20162
睫	-20163
秽	-20164
羡	-20165
儋	-20166
勰	-20167
哑	-20168
嚨	-20169
猖	-20170
璉	-20171
甕	-20172
钳	-20173
阗	-20174
頡	-20175
ど	-20176
仄	-20177
剋	-20178
哗	-20179
慄	-20180
溼	-20181
瘠	-20182
鉑	-20183
鸾	-20184
ガ	-20185
屹	-20186
疱	-20187
痺	-20188
钚	-20189
骥	-20190
鬃	-20191
鯤	-20192
嫖	-20193
瑭	-20194
邠	-20195
鲱	-20196
ن	-20197
喵	-20198
寛	-20199
帚	-20200
恙	-20201
栎	-20202
漬	-20203
ビ	-20204
亟	-20205
掺	-20206
梟	-20207
薈	-20208
鰨	-20209
鳟	-20210
黍	-20211
이	-20212
ひ	-20213
孰	-20214
璘	-20215
蚜	-20216
掾	-20217
瞩	-20218
蜍	-20219
諏	-20220
鏞	-20221
晁	-20222
晷	-20223
杲	-20224
氡	-20225
禀	-20226
藜	-20227
蛭	-20228
譏	-20229
з	-20230
俺	-20231
帑	-20232
烴	-20233
茸	-20234
蚓	-20235
頹	-20236
驤	-20237
鵜	-20238
囤	-20239
簪	-20240
粽	-20241
譙	-20242
ズ	-20243
敍	-20244
昙	-20245
湟	-20246
珥	-20247
绮	-20248
蒯	-20249
蜆	-20250
褪	-20251
赃	-20252
鄯	-20253
阇	-20254
驢	-20255
儼	-20256
嘟	-20257
忏	-20258
浔	-20259
禰	-20260
稔	-20261
粿	-20262
魮	-20263
桧	-20264
瞪	-20265
綦	-20266
胫	-20267
邃	-20268
醌	-20269
鳗	-20270
υ	-20271
≤	-20272
呐	-20273
囂	-20274
氪	-20275
璨	-20276
瘍	-20277
綵	-20278
ゅ	-20279
盞	-20280
雹	-20281
æ	-20282
匱	-20283
咆	-20284
嗚	-20285
嘅	-20286
濛	-20287
煬	-20288
繭	-20289
羥	-20290
蝮	-20291
逛	-20292
垛	-20293
尴	-20294
朐	-20295
栾	-20296
梶	-20297
沭	-20298
淅	-20299
湮	-20300
滸	-20301
珣	-20302
筷	-20303
纥	-20304
芎	-20305
贓	-20306
و	-20307
哄	-20308
妞	-20309
恂	-20310
煊	-20311
窥	-20312
絳	-20313
赭	-20314
錠	-20315
Н	-20316
喱	-20317
嘩	-20318
澂	-20319
缽	-20320
蟑	-20321
袞	-20322
诲	-20323
谔	-20324
赉	-20325
邾	-20326
鳖	-20327
鵲	-20328
ب	-20329
嚕	-20330
囪	-20331
嵊	-20332
暐	-20333
楫	-20334
珩	-20335
笏	-20336
鄚	-20337
钒	-20338
铨	-20339
闫	-20340
顗	-20341
咱	-20342
嶷	-20343
徭	-20344
拚	-20345
昴	-20346
檗	-20347
癬	-20348
訖	-20349
镕	-20350
瀘	-20351
痰	-20352
绊	-20353
聋	-20354
腌	-20355
贲	-20356
鐳	-20357
卍	-20358
讹	-20359
軾	-20360
郧	-20361
飙	-20362
î	-20363
崽	-20364
扛	-20365
燼	-20366
皎	-20367
緞	-20368
翱	-20369
蜈	-20370
銹	-20371
х	-20372
ร	-20373
ワ	-20374
戸	-20375
敎	-20376
漓	-20377
癡	-20378
癢	-20379
砥	-20380
祆	-20381
豌	-20382
趴	-20383
鋤	-20384
镌	-20385
骅	-20386
Σ	-20387
ί	-20388
儷	-20389
嶠	-20390
庑	-20391
搅	-20392
燁	-20393
蠔	-20394
軼	-20395
阈	-20396
髦	-20397
ツ	-20398
塭	-20399
崂	-20400
杓	-20401
澗	-20402
瘀	-20403
胭	-20404
茗	-20405
茴	-20406
荖	-20407
菈	-20408
藐	-20409
郤	-20410
魷	-20411
せ	-20412
嚣	-20413
峠	-20414
擷	-20415
漣	-20416
瓢	-20417
痹	-20418
缕	-20419
缢	-20420
า	-20421
嫣	-20422
斟	-20423
櫟	-20424
炊	-20425
玮	-20426
繇	-20427
薙	-20428
蹇	-20429
颊	-20430
娣	-20431
猾	-20432
珏	-20433
胛	-20434
蚣	-20435
郗	-20436
偈	-20437
徳	-20438
懾	-20439
摻	-20440
攒	-20441
樋	-20442
炱	-20443
爍	-20444
瓘	-20445
痢	-20446
賁	-20447
込	-20448
鸫	-20449
壑	-20450
嵯	-20451
恿	-20452
暄	-20453
溅	-20454
獠	-20455
琏	-20456
甌	-20457
痒	-20458
绯	-20459
谚	-20460
谯	-20461
辮	-20462
閹	-20463
颓	-20464
饬	-20465
鸢	-20466
鹳	-20467
ś	-20468
乩	-20469
剷	-20470
幀	-20471
潇	-20472
獺	-20473
畹	-20474
耘	-20475
肼	-20476
膿	-20477
蒴	-20478
镭	-20479
陲	-20480
そ	-20481
忿	-20482
毎	-20483
獗	-20484
絶	-20485
踵	-20486
蹂	-20487
閭	-20488
陟	-20489
頷	-20490
岫	-20491
嵇	-20492
戦	-20493
燙	-20494
窜	-20495
镧	-20496
ό	-20497
ㄧ	-20498
嚎	-20499
嬤	-20500
櫥	-20501
汊	-20502
澹	-20503
莢	-20504
蝌	-20505
軛	-20506
å	-20507
Г	-20508
ば	-20509
掳	-20510
揪	-20511
涕	-20512
砵	-20513
祟	-20514
縻	-20515
胪	-20516
舯	-20517
詰	-20518
軋	-20519
鮫	-20520
И	-20521
俨	-20522
埭	-20523
堑	-20524
憫	-20525
梆	-20526
滌	-20527
犢	-20528
硤	-20529
翩	-20530
蚪	-20531
誨	-20532
郯	-20533
鎢	-20534
馅	-20535
م	-20536
侑	-20537
吝	-20538
怛	-20539
憚	-20540
歴	-20541
澆	-20542
璿	-20543
笹	-20544
綻	-20545
菀	-20546
诣	-20547
錮	-20548
锭	-20549
馭	-20550
Б	-20551
渺	-20552
燎	-20553
猬	-20554
箍	-20555
絢	-20556
苴	-20557
蒨	-20558
锣	-20559
霏	-20560
鹛	-20561
О	-20562
丶	-20563
椽	-20564
櫓	-20565
瑗	-20566
璀	-20567
莿	-20568
藁	-20569
蜚	-20570
跖	-20571
铋	-20572
铮	-20573
閤	-20574
ş	-20575
攣	-20576
燉	-20577
緱	-20578
縊	-20579
翦	-20580
蛻	-20581
骇	-20582
骡	-20583
鼴	-20584
儕	-20585
匐	-20586
岘	-20587
烫	-20588
瑀	-20589
轧	-20590
驒	-20591
ゆ	-20592
捡	-20593
朮	-20594
榘	-20595
殤	-20596
泷	-20597
痞	-20598
耒	-20599
苄	-20600
邬	-20601
钯	-20602
骧	-20603
鳕	-20604
ò	-20605
ず	-20606
伉	-20607
俶	-20608
殮	-20609
煲	-20610
猗	-20611
縉	-20612
绫	-20613
荳	-20614
菓	-20615
蝨	-20616
谘	-20617
辙	-20618
铰	-20619
冑	-20620
勅	-20621
厩	-20622
嘶	-20623
峦	-20624
枷	-20625
琇	-20626
璠	-20627
詬	-20628
鉞	-20629
雋	-20630
鱺	-20631
齧	-20632
س	-20633
ェ	-20634
吲	-20635
朦	-20636
鄜	-20637
韭	-20638
飭	-20639
骊	-20640
ɛ	-20641
佢	-20642
刈	-20643
悯	-20644
晗	-20645
燬	-20646
蓁	-20647
錡	-20648
鴕	-20649
鶇	-20650
ぶ	-20651
夙	-20652
廪	-20653
撻	-20654
歩	-20655
潦	-20656
濺	-20657
瀬	-20658
熒	-20659
疍	-20660
睇	-20661
蚵	-20662
蹼	-20663
锶	-20664
ζ	-20665
د	-20666
噹	-20667
歎	-20668
焜	-20669
纘	-20670
膾	-20671
铿	-20672
鯙	-20673
鳐	-20674
ά	-20675
娴	-20676
弭	-20677
暠	-20678
氘	-20679
玥	-20680
砜	-20681
藕	-20682
蠣	-20683
蹊	-20684
閨	-20685
Ω	-20686
剽	-20687
嚐	-20688
拗	-20689
紜	-20690
缎	-20691
脯	-20692
腮	-20693
蜷	-20694
蝽	-20695
贅	-20696
轶	-20697
辎	-20698
鄲	-20699
醞	-20700
驷	-20701
佶	-20702
坵	-20703
寔	-20704
尕	-20705
岙	-20706
愫	-20707
椋	-20708
樾	-20709
灏	-20710
炅	-20711
烁	-20712
盱	-20713
诋	-20714
騏	-20715
鯖	-20716
鱒	-20717
★	-20718
ゃ	-20719
僥	-20720
儸	-20721
匍	-20722
哚	-20723
撣	-20724
槎	-20725
氚	-20726
珑	-20727
睜	-20728
蠱	-20729
诀	-20730
邈	-20731
颉	-20732
鮡	-20733
ネ	-20734
墀	-20735
墉	-20736
桀	-20737
睪	-20738
簋	-20739
芾	-20740
讫	-20741
谛	-20742
軫	-20743
鈽	-20744
Ö	-20745
ð	-20746
ц	-20747
ョ	-20748
啃	-20749
様	-20750
礪	-20751
脲	-20752
蜢	-20753
蜱	-20754
豺	-20755
跛	-20756
輒	-20757
鉢	-20758
铠	-20759
镉	-20760
闐	-20761
靺	-20762
馱	-20763
髂	-20764
鯡	-20765
ш	-20766
坨	-20767
淼	-20768
玷	-20769
眞	-20770
砀	-20771
莅	-20772
蚯	-20773
鈷	-20774
铢	-20775
鱧	-20776
鱨	-20777
ˋ	-20778
嗆	-20779
嗨	-20780
垭	-20781
峴	-20782
恣	-20783
慤	-20784
憊	-20785
捩	-20786
揄	-20787
晔	-20788
涓	-20789
瑁	-20790
眙	-20791
硯	-20792
碚	-20793
臍	-20794
僮	-20795
勗	-20796
嗝	-20797
惺	-20798
枇	-20799
涞	-20800
蕲	-20801
蹴	-20802
铣	-20803
阉	-20804
鞨	-20805
ʔ	-20806
凪	-20807
孪	-20808
崮	-20809
旼	-20810
瀰	-20811
珙	-20812
笞	-20813
耙	-20814
虬	-20815
覬	-20816
豊	-20817
赡	-20818
輋	-20819
铊	-20820
阕	-20821
ˊ	-20822
ː	-20823
У	-20824
恍	-20825
扉	-20826
汹	-20827
爰	-20828
脓	-20829
蚩	-20830
蛞	-20831
袂	-20832
谪	-20833
锆	-20834
顼	-20835
鹟	-20836
ご	-20837
ね	-20838
ほ	-20839
ケ	-20840
泫	-20841
犒	-20842
蝓	-20843
裟	-20844
銬	-20845
髅	-20846
ت	-20847
兢	-20848
凛	-20849
刨	-20850
哼	-20851
喔	-20852
坷	-20853
姍	-20854
拭	-20855
杷	-20856
歿	-20857
浬	-20858
淌	-20859
矜	-20860
羿	-20861
苫	-20862
蟎	-20863
袈	-20864
輓	-20865
鎔	-20866
阆	-20867
®	-20868
惋	-20869
愔	-20870
楯	-20871
滎	-20872
砧	-20873
稗	-20874
竑	-20875
綑	-20876
菟	-20877
蔴	-20878
讥	-20879
镛	-20880
閡	-20881
驮	-20882
鮎	-20883
鰺	-20884
麋	-20885
`	-20886
ư	-20887
嗶	-20888
噱	-20889
姫	-20890
恽	-20891
揶	-20892
柝	-20893
篱	-20894
繽	-20895
袱	-20896
詆	-20897
顳	-20898
颢	-20899
鵟	-20900
ý	-20901
ă	-20902
ピ	-20903
圜	-20904
塱	-20905
孃	-20906
巿	-20907
惫	-20908
旃	-20909
曖	-20910
袤	-20911
覦	-20912
辫	-20913
鏖	-20914
镓	-20915
閎	-20916
騫	-20917
骯	-20918
鯓	-20919
鶲	-20920
龈	-20921
น	-20922
ポ	-20923
ヤ	-20924
専	-20925
淬	-20926
禑	-20927
窿	-20928
蛀	-20929
軔	-20930
辄	-20931
Đ	-20932
≥	-20933
ホ	-20934
倻	-20935
咁	-20936
挛	-20937
曷	-20938
濡	-20939
煇	-20940
狒	-20941
疃	-20942
痙	-20943
繃	-20944
荪	-20945
蒽	-20946
蘚	-20947
謐	-20948
诩	-20949
谌	-20950
銨	-20951
钺	-20952
隽	-20953
驪	-20954
鮃	-20955
鹬	-20956
ń	-20957
∞	-20958
ふ	-20959
佞	-20960
搓	-20961
栉	-20962
棻	-20963
犛	-20964
碓	-20965
紂	-20966
蓼	-20967
蟀	-20968
骈	-20969
厮	-20970
廩	-20971
愕	-20972
晾	-20973
沓	-20974
瓌	-20975
膊	-20976
荟	-20977
蒞	-20978
蔺	-20979
褂	-20980
酝	-20981
鉸	-20982
钏	-20983
锄	-20984
Á	-20985
∶	-20986
ぐ	-20987
佺	-20988
囓	-20989
埡	-20990
洶	-20991
瀟	-20992
玳	-20993
瓒	-20994
県	-20995
糰	-20996
贍	-20997
邇	-20998
鈹	-20999
闺	-21000
ï	-21001
ù	-21002
ی	-21003
伕	-21004
啜	-21005
噓	-21006
戾	-21007
拴	-21008
棂	-21009
殃	-21010
罂	-21011
蚶	-21012
蛸	-21013
蟆	-21014
訢	-21015
輅	-21016
鄔	-21017
阑	-21018
阯	-21019
鼯	-21020
û	-21021
寐	-21022
撬	-21023
橈	-21024
猕	-21025
睑	-21026
苋	-21027
苾	-21028
郓	-21029
郜	-21030
鎗	-21031
餃	-21032
鴦	-21033
鸳	-21034
セ	-21035
嘿	-21036
橱	-21037
烨	-21038
玠	-21039
磘	-21040
笺	-21041
篝	-21042
萁	-21043
蜕	-21044
龢	-21045
ペ	-21046
勣	-21047
惣	-21048
搔	-21049
滂	-21050
臆	-21051
蛎	-21052
豉	-21053
辇	-21054
钌	-21055
饗	-21056
鮠	-21057
י	-21058
ा	-21059
傈	-21060
僳	-21061
嵋	-21062
椁	-21063
泠	-21064
燾	-21065
磾	-21066
簸	-21067
譁	-21068
讒	-21069
闔	-21070
顔	-21071
鸮	-21072
्	-21073
ั	-21074
ボ	-21075
噠	-21076
徠	-21077
搐	-21078
汎	-21079
淝	-21080
炖	-21081
稹	-21082
縷	-21083
脐	-21084
荨	-21085
蛉	-21086
蛊	-21087
锟	-21088
锷	-21089
陉	-21090
鯽	-21091
麂	-21092
ž	-21093
і	-21094
ソ	-21095
倬	-21096
毬	-21097
氈	-21098
涎	-21099
溟	-21100
箋	-21101
箫	-21102
缇	-21103
蟋	-21104
郃	-21105
釵	-21106
銫	-21107
铈	-21108
鯧	-21109
ì	-21110
∈	-21111
凄	-21112
巂	-21113
慫	-21114
拣	-21115
捶	-21116
晩	-21117
枱	-21118
汜	-21119
泚	-21120
疝	-21121
簫	-21122
紇	-21123
胍	-21124
藪	-21125
讖	-21126
轆	-21127
鎏	-21128
隰	-21129
靓	-21130
鸯	-21131
£	-21132
­	-21133
ɔ	-21134
Φ	-21135
χ	-21136
ม	-21137
ァ	-21138
ベ	-21139
仝	-21140
垠	-21141
惘	-21142
拽	-21143
淩	-21144
爨	-21145
璩	-21146
疡	-21147
皝	-21148
眨	-21149
穰	-21150
篙	-21151
肮	-21152
訇	-21153
[...]
